{
  "version": "1.0",
  "truncation": null,
  "padding": null,
  "added_tokens": [
    {
      "id": 0,
      "content": "[UNK]",
      "single_word": false,
      "lstrip": false,
      "rstrip": false,
      "normalized": false,
      "special": true
    },
    {
      "id": 1,
      "content": "[CLS]",
      "single_word": false,
      "lstrip": false,
      "rstrip": false,
      "normalized": false,
      "special": true
    },
    {
      "id": 2,
      "content": "[SEP]",
      "single_word": false,
      "lstrip": false,
      "rstrip": false,
      "normalized": false,
      "special": true
    },
    {
      "id": 3,
      "content": "[PAD]",
      "single_word": false,
      "lstrip": false,
      "rstrip": false,
      "normalized": false,
      "special": true
    },
    {
      "id": 4,
      "content": "[MASK]",
      "single_word": false,
      "lstrip": false,
      "rstrip": false,
      "normalized": false,
      "special": true
    },
    {
      "id": 5,
      "content": "[PAR]",
      "single_word": false,
      "lstrip": false,
      "rstrip": false,
      "normalized": false,
      "special": true
    },
    {
      "id": 6,
      "content": "[TAB]",
      "single_word": false,
      "lstrip": false,
      "rstrip": false,
      "normalized": false,
      "special": true
    }
  ],
  "normalizer": {
    "type": "NFKC"
  },
  "pre_tokenizer": {
    "type": "Sequence",
    "pretokenizers": [
      {
        "type": "Whitespace"
      },
      {
        "type": "Split",
        "pattern": {
          "Regex": "▁*(\\[UNK\\]|\\[unk\\]|<unk>|n't|N'T|'ll|'LL|'re|'RE|'ve|'VE|'m|'M|'s|'S|'d|'D)(?!\\w+)"
        },
        "behavior": "Isolated",
        "invert": false
      },
      {
        "type": "Split",
        "pattern": {
          "Regex": "▁*(\\.+|#+|\\[UNK\\]$|\\[unk\\]$|<unk>$|n't$|N'T$|'ll$|'LL$|'re$|'RE$|'ve$|'VE$|'m$|'M$|'s$|        'S$|'d$|'D$|\\d|[^\\w▁]){1}"
        },
        "behavior": "Isolated",
        "invert": false
      },
      {
        "type": "Digits",
        "individual_digits": false
      },
      {
        "type": "ByteLevel",
        "add_prefix_space": true,
        "trim_offsets": true,
        "use_regex": true
      }
    ]
  },
  "post_processor": {
    "type": "RobertaProcessing",
    "sep": [
      "[SEP]",
      2
    ],
    "cls": [
      "[CLS]",
      1
    ],
    "trim_offsets": true,
    "add_prefix_space": true
  },
  "decoder": {
    "type": "Sequence",
    "decoders": [
      {
        "type": "ByteFallback"
      },
      {
        "type": "ByteLevel",
        "add_prefix_space": true,
        "trim_offsets": true,
        "use_regex": true
      },
      {
        "type": "BPEDecoder",
        "suffix": "</w>"
      }
    ]
  },
  "model": {
    "type": "BPE",
    "dropout": null,
    "unk_token": "[UNK]",
    "continuing_subword_prefix": null,
    "end_of_word_suffix": "</w>",
    "fuse_unk": true,
    "byte_fallback": true,
    "ignore_merges": false,
    "vocab": {
      "[UNK]": 0,
      "[CLS]": 1,
      "[SEP]": 2,
      "[PAD]": 3,
      "[MASK]": 4,
      "[PAR]": 5,
      "[TAB]": 6,
      "!": 7,
      "\"": 8,
      "#": 9,
      "$": 10,
      "%": 11,
      "&": 12,
      "'": 13,
      "(": 14,
      ")": 15,
      "*": 16,
      "+": 17,
      ",": 18,
      "-": 19,
      ".": 20,
      "/": 21,
      "0": 22,
      "1": 23,
      "2": 24,
      "3": 25,
      "4": 26,
      "5": 27,
      "6": 28,
      "7": 29,
      "8": 30,
      "9": 31,
      ":": 32,
      ";": 33,
      "<": 34,
      "=": 35,
      ">": 36,
      "?": 37,
      "@": 38,
      "A": 39,
      "B": 40,
      "C": 41,
      "D": 42,
      "E": 43,
      "F": 44,
      "G": 45,
      "H": 46,
      "I": 47,
      "J": 48,
      "K": 49,
      "L": 50,
      "M": 51,
      "N": 52,
      "O": 53,
      "P": 54,
      "Q": 55,
      "R": 56,
      "S": 57,
      "T": 58,
      "U": 59,
      "V": 60,
      "W": 61,
      "X": 62,
      "Y": 63,
      "Z": 64,
      "[": 65,
      "\\": 66,
      "]": 67,
      "^": 68,
      "_": 69,
      "a": 70,
      "b": 71,
      "c": 72,
      "d": 73,
      "e": 74,
      "f": 75,
      "g": 76,
      "h": 77,
      "i": 78,
      "j": 79,
      "k": 80,
      "l": 81,
      "m": 82,
      "n": 83,
      "o": 84,
      "p": 85,
      "q": 86,
      "r": 87,
      "s": 88,
      "t": 89,
      "u": 90,
      "v": 91,
      "w": 92,
      "x": 93,
      "y": 94,
      "z": 95,
      "{": 96,
      "|": 97,
      "}": 98,
      "~": 99,
      "¡": 100,
      "¢": 101,
      "£": 102,
      "¤": 103,
      "¥": 104,
      "¦": 105,
      "§": 106,
      "¨": 107,
      "©": 108,
      "ª": 109,
      "«": 110,
      "¬": 111,
      "®": 112,
      "¯": 113,
      "°": 114,
      "±": 115,
      "²": 116,
      "³": 117,
      "´": 118,
      "µ": 119,
      "¶": 120,
      "·": 121,
      "¸": 122,
      "¹": 123,
      "º": 124,
      "»": 125,
      "¼": 126,
      "½": 127,
      "¾": 128,
      "¿": 129,
      "Â": 130,
      "Ã": 131,
      "Ä": 132,
      "Å": 133,
      "Æ": 134,
      "Ç": 135,
      "È": 136,
      "É": 137,
      "Ê": 138,
      "Ë": 139,
      "Ì": 140,
      "Í": 141,
      "Î": 142,
      "Ï": 143,
      "Ð": 144,
      "Ñ": 145,
      "Ò": 146,
      "Ó": 147,
      "Ô": 148,
      "Õ": 149,
      "Ö": 150,
      "×": 151,
      "Ø": 152,
      "Ù": 153,
      "Ú": 154,
      "Û": 155,
      "Ü": 156,
      "Ý": 157,
      "Þ": 158,
      "ß": 159,
      "à": 160,
      "á": 161,
      "â": 162,
      "ã": 163,
      "ä": 164,
      "å": 165,
      "æ": 166,
      "ç": 167,
      "è": 168,
      "é": 169,
      "ê": 170,
      "ë": 171,
      "ì": 172,
      "í": 173,
      "ï": 174,
      "ð": 175,
      "Ġ": 176,
      "Ģ": 177,
      "ģ": 178,
      "Ĥ": 179,
      "ĥ": 180,
      "Ħ": 181,
      "ħ": 182,
      "Ĩ": 183,
      "ĩ": 184,
      "Ī": 185,
      "ī": 186,
      "Ĭ": 187,
      "ĭ": 188,
      "Į": 189,
      "į": 190,
      "İ": 191,
      "ı": 192,
      "Ĳ": 193,
      "ĳ": 194,
      "Ĵ": 195,
      "ĵ": 196,
      "Ķ": 197,
      "ķ": 198,
      "ĸ": 199,
      "Ĺ": 200,
      "ĺ": 201,
      "Ļ": 202,
      "ļ": 203,
      "Ľ": 204,
      "ľ": 205,
      "Ŀ": 206,
      "ŀ": 207,
      "Ł": 208,
      "ł": 209,
      "Ń": 210,
      "r</w>": 211,
      "n</w>": 212,
      "e</w>": 213,
      "³</w>": 214,
      "u</w>": 215,
      "b</w>": 216,
      "a</w>": 217,
      "d</w>": 218,
      "k</w>": 219,
      "o</w>": 220,
      "l</w>": 221,
      "p</w>": 222,
      "h</w>": 223,
      "y</w>": 224,
      "N</w>": 225,
      "m</w>": 226,
      "t</w>": 227,
      "i</w>": 228,
      "E</w>": 229,
      "v</w>": 230,
      "K</w>": 231,
      "c</w>": 232,
      "I</w>": 233,
      "Z</w>": 234,
      "g</w>": 235,
      "D</w>": 236,
      "x</w>": 237,
      "T</w>": 238,
      "P</w>": 239,
      "f</w>": 240,
      "O</w>": 241,
      "s</w>": 242,
      "z</w>": 243,
      "S</w>": 244,
      "L</w>": 245,
      "U</w>": 246,
      "R</w>": 247,
      "¨</w>": 248,
      "H</w>": 249,
      "A</w>": 250,
      "B</w>": 251,
      "¬</w>": 252,
      "¿</w>": 253,
      "¤</w>": 254,
      "G</w>": 255,
      "M</w>": 256,
      "Y</w>": 257,
      "ª</w>": 258,
      "F</w>": 259,
      "ĥ</w>": 260,
      "w</w>": 261,
      "²</w>": 262,
      "±</w>": 263,
      "X</w>": 264,
      "q</w>": 265,
      "Ł</w>": 266,
      "ģ</w>": 267,
      "Ģ</w>": 268,
      "j</w>": 269,
      "C</w>": 270,
      "ľ</w>": 271,
      "ĺ</w>": 272,
      "Ķ</w>": 273,
      "V</w>": 274,
      "¹</w>": 275,
      "¢</w>": 276,
      "Ĳ</w>": 277,
      "Ļ</w>": 278,
      "Ĭ</w>": 279,
      "¦</w>": 280,
      "µ</w>": 281,
      "¶</w>": 282,
      "W</w>": 283,
      "Ĺ</w>": 284,
      "ī</w>": 285,
      "«</w>": 286,
      "Ī</w>": 287,
      "Q</w>": 288,
      "©</w>": 289,
      "ĳ</w>": 290,
      "ļ</w>": 291,
      "ı</w>": 292,
      "Ĩ</w>": 293,
      "Ĵ</w>": 294,
      "¥</w>": 295,
      "ħ</w>": 296,
      "Ń</w>": 297,
      "ķ</w>": 298,
      "´</w>": 299,
      "£</w>": 300,
      "½</w>": 301,
      "¯</w>": 302,
      "Ŀ</w>": 303,
      "Į</w>": 304,
      "ł</w>": 305,
      "ĩ</w>": 306,
      "ĵ</w>": 307,
      "į</w>": 308,
      "ĸ</w>": 309,
      "Ħ</w>": 310,
      "ĭ</w>": 311,
      "¼</w>": 312,
      "·</w>": 313,
      ".</w>": 314,
      "İ</w>": 315,
      "º</w>": 316,
      "¸</w>": 317,
      "¡</w>": 318,
      "J</w>": 319,
      "Ĥ</w>": 320,
      "°</w>": 321,
      "ŀ</w>": 322,
      "»</w>": 323,
      "®</w>": 324,
      "3</w>": 325,
      "§</w>": 326,
      "¾</w>": 327,
      "-</w>": 328,
      "@</w>": 329,
      "Ľ</w>": 330,
      "}</w>": 331,
      "+</w>": 332,
      "_</w>": 333,
      "1</w>": 334,
      "6</w>": 335,
      "7</w>": 336,
      "%</w>": 337,
      ":</w>": 338,
      "[</w>": 339,
      "2</w>": 340,
      "#</w>": 341,
      "~</w>": 342,
      "8</w>": 343,
      "5</w>": 344,
      "]</w>": 345,
      "|</w>": 346,
      "=</w>": 347,
      "&</w>": 348,
      "<</w>": 349,
      "'</w>": 350,
      "\"</w>": 351,
      ",</w>": 352,
      "></w>": 353,
      "$</w>": 354,
      "{</w>": 355,
      "\\</w>": 356,
      "0</w>": 357,
      "*</w>": 358,
      "4</w>": 359,
      ";</w>": 360,
      "!</w>": 361,
      "/</w>": 362,
      "?</w>": 363,
      "^</w>": 364,
      "(</w>": 365,
      ")</w>": 366,
      "9</w>": 367,
      "Ġ\"</w>": 368,
      "Ġt": 369,
      "Ġth": 370,
      "Ġ.</w>": 371,
      "Ġi": 372,
      "Ġa": 373,
      "Ġs</w>": 374,
      "Ġ,</w>": 375,
      "Ġw": 376,
      "Ġs": 377,
      "Ġo": 378,
      "Ġe": 379,
      "Ġthe</w>": 380,
      "Ġh": 381,
      "Ġb": 382,
      "Ġc": 383,
      "Ġm": 384,
      "nd</w>": 385,
      "Ġl": 386,
      "Ġ'</w>": 387,
      "Ġf": 388,
      "re</w>": 389,
      "ng</w>": 390,
      "er</w>": 391,
      "Ġd": 392,
      "ou": 393,
      "Ġp": 394,
      "Ġy": 395,
      "at</w>": 396,
      "Ġto</w>": 397,
      "Ġed</w>": 398,
      "Ġa</w>": 399,
      "ou</w>": 400,
      "Ġof</w>": 401,
      "Ġand</w>": 402,
      "on</w>": 403,
      "ea": 404,
      "Ġg": 405,
      "ĠI</w>": 406,
      "Ġing</w>": 407,
      "Ġn": 408,
      "ĠT": 409,
      "ri": 410,
      "Ġwa": 411,
      "Ġin</w>": 412,
      "Ġyou</w>": 413,
      "ll</w>": 414,
      "Ġ?</w>": 415,
      "it": 416,
      "re": 417,
      "st</w>": 418,
      "nt</w>": 419,
      "at": 420,
      "or": 421,
      "ro": 422,
      "ve</w>": 423,
      "ĠS": 424,
      "Ġha": 425,
      "en</w>": 426,
      "ĠTh": 427,
      "ĠA": 428,
      "ĠW": 429,
      "er": 430,
      "ar": 431,
      "an</w>": 432,
      "om": 433,
      "Ġwh": 434,
      "Ġthat</w>": 435,
      "or</w>": 436,
      "ow</w>": 437,
      "in": 438,
      "le</w>": 439,
      "Ġit</w>": 440,
      "Ġthe": 441,
      "an": 442,
      "Ġis</w>": 443,
      "se</w>": 444,
      "on": 445,
      "ĠH": 446,
      "ĠI": 447,
      "Ġu": 448,
      "Ġ-</w>": 449,
      "ĠM": 450,
      "ĠC": 451,
      "ion</w>": 452,
      "ut</w>": 453,
      "ay</w>": 454,
      "Ġwas</w>": 455,
      "ic": 456,
      "ld</w>": 457,
      "Ġ1</w>": 458,
      "Ġly</w>": 459,
      "Ġbe</w>": 460,
      "ĠY": 461,
      "ot</w>": 462,
      "Ġst": 463,
      "ĠB": 464,
      "ai": 465,
      "ere</w>": 466,
      "ac": 467,
      "Ġhi": 468,
      "et</w>": 469,
      "Ġon</w>": 470,
      "Ġ0</w>": 471,
      "Ġt</w>": 472,
      "oo": 473,
      "Ġer</w>": 474,
      "gh": 475,
      "Ġfor</w>": 476,
      "al</w>": 477,
      "Ġk": 478,
      "Ġse": 479,
      "Ġsh": 480,
      "ent</w>": 481,
      "ke</w>": 482,
      "ght</w>": 483,
      "Ġre</w>": 484,
      "Ġ!</w>": 485,
      "st": 486,
      "ing</w>": 487,
      "ĠO": 488,
      "am": 489,
      "ĠN": 490,
      "en": 491,
      "ĠD": 492,
      "Ġr": 493,
      "Ġwit": 494,
      "Ġli": 495,
      "ĠP": 496,
      "ed</w>": 497,
      "Ġ2</w>": 498,
      "th</w>": 499,
      "ome</w>": 500,
      "Ġdi": 501,
      "ĠL": 502,
      "Ġwith</w>": 503,
      "ĠWh": 504,
      "ss</w>": 505,
      "ĠG": 506,
      "ĠThe</w>": 507,
      "ec": 508,
      "Ġhe</w>": 509,
      "ver</w>": 510,
      "Ġca": 511,
      "li": 512,
      "Ġv": 513,
      "our</w>": 514,
      "th": 515,
      "ur": 516,
      "Ġhave</w>": 517,
      "ce</w>": 518,
      "ch</w>": 519,
      "Ġin": 520,
      "Ġ9</w>": 521,
      "ne</w>": 522,
      "Ġthi</w>": 523,
      "Ġmo": 524,
      "ĠR": 525,
      "ould</w>": 526,
      "ĠF": 527,
      "Ġas</w>": 528,
      "Ġwe</w>": 529,
      "ol": 530,
      "ĠYou</w>": 531,
      "Ġare</w>": 532,
      "Ġfi": 533,
      "Ġkn": 534,
      "ter</w>": 535,
      "ell</w>": 536,
      "Ġnot</w>": 537,
      "Ġme</w>": 538,
      "Ġy</w>": 539,
      "ill</w>": 540,
      "ĠE": 541,
      "Ġat</w>": 542,
      "..</w>": 543,
      "ge</w>": 544,
      "Ġab": 545,
      "ĠIt</w>": 546,
      "Ġne": 547,
      "Ġj": 548,
      "ĠJ": 549,
      "Ġan": 550,
      "ra": 551,
      "Ġdo</w>": 552,
      "Ġbe": 553,
      "ust</w>": 554,
      "el": 555,
      "im": 556,
      "il": 557,
      "Ġknow</w>": 558,
      "Ġsu": 559,
      "...</w>": 560,
      "ther</w>": 561,
      "de</w>": 562,
      "Ġch": 563,
      "Ġ...</w>": 564,
      "ation</w>": 565,
      "Ġma": 566,
      "Ġhis</w>": 567,
      "ey</w>": 568,
      "Ġfro": 569,
      "Ġal": 570,
      "ear</w>": 571,
      "Ġpl": 572,
      "Ġre": 573,
      "Ġone</w>": 574,
      "Ġthey</w>": 575,
      "Ġ)</w>": 576,
      "Ġyour</w>": 577,
      "al": 578,
      "Ġ(</w>": 579,
      "it</w>": 580,
      "ain</w>": 581,
      "ate</w>": 582,
      "Ġcan</w>": 583,
      "Ġdo": 584,
      "Ġby</w>": 585,
      "Ġfrom</w>": 586,
      "Ġor</w>": 587,
      "Ġwhat</w>": 588,
      "out</w>": 589,
      "pp": 590,
      "ic</w>": 591,
      "Ġall</w>": 592,
      "Ġcon": 593,
      "in</w>": 594,
      "ook</w>": 595,
      "Ġpro": 596,
      "Ġri": 597,
      "ĠHe</w>": 598,
      "ar</w>": 599,
      "Ġmy</w>": 600,
      "Ġlo": 601,
      "em": 602,
      "Ġher</w>": 603,
      "ame</w>": 604,
      "ir</w>": 605,
      "Ġto": 606,
      "sh</w>": 607,
      "Ġwor": 608,
      "Ġthere</w>": 609,
      "Ġal</w>": 610,
      "Ġhad</w>": 611,
      "Ġlike</w>": 612,
      "gh</w>": 613,
      "Ġbut</w>": 614,
      "Ġout</w>": 615,
      "ĠAnd</w>": 616,
      "qu": 617,
      "ĠWhat</w>": 618,
      "ss": 619,
      "ry</w>": 620,
      "Ġm</w>": 621,
      "and</w>": 622,
      "Ġup</w>": 623,
      "Ġhim</w>": 624,
      "Ġan</w>": 625,
      "ood</w>": 626,
      "Ġgo": 627,
      "op": 628,
      "Ġsp": 629,
      "ack</w>": 630,
      "ead</w>": 631,
      "et": 632,
      "wn</w>": 633,
      "Ġbo": 634,
      "ul": 635,
      "el</w>": 636,
      "Ġ8</w>": 637,
      "ut": 638,
      "Ġex": 639,
      "Ġabout</w>": 640,
      "Ġso</w>": 641,
      "un": 642,
      "Ġshe</w>": 643,
      "Ġcom": 644,
      "Ġ3</w>": 645,
      "ime</w>": 646,
      "Ġ5</w>": 647,
      "Ġdon</w>": 648,
      "der</w>": 649,
      "Ġwere</w>": 650,
      "ir": 651,
      "ct</w>": 652,
      "ĠK": 653,
      "Ġsi": 654,
      "Ġtime</w>": 655,
      "ound</w>": 656,
      "Ġget</w>": 657,
      "Ġjust</w>": 658,
      "ect</w>": 659,
      "um": 660,
      "Ġta": 661,
      "ink</w>": 662,
      "eal</w>": 663,
      "Ġsome</w>": 664,
      "ff": 665,
      "Ġ4</w>": 666,
      "Ġway</w>": 667,
      "Ġpo": 668,
      "Ġde": 669,
      "ĠSh": 670,
      "ine</w>": 671,
      "Ġtw": 672,
      "one</w>": 673,
      "Ġ7</w>": 674,
      "ĠU": 675,
      "Ġ6</w>": 676,
      "ch": 677,
      "Ġll</w>": 678,
      "ight</w>": 679,
      "Ġhere</w>": 680,
      "ver": 681,
      "Ġco": 682,
      "Ġ:</w>": 683,
      "Ġen</w>": 684,
      "Ġright</w>": 685,
      "aid</w>": 686,
      "eah</w>": 687,
      "ie</w>": 688,
      "Ġgo</w>": 689,
      "Ġwant</w>": 690,
      "ck</w>": 691,
      "Ġthem</w>": 692,
      "art</w>": 693,
      "Ġif</w>": 694,
      "ort</w>": 695,
      "Ġwould</w>": 696,
      "Ġthink</w>": 697,
      "ich</w>": 698,
      "Ġint": 699,
      "ive</w>": 700,
      "Ġwill</w>": 701,
      "Ġcl": 702,
      "Ġtr": 703,
      "Ġfu": 704,
      "ice</w>": 705,
      "ĠWe</w>": 706,
      "ur</w>": 707,
      "Ġus</w>": 708,
      "tt": 709,
      "ĠOh</w>": 710,
      "ure</w>": 711,
      "Ġba": 712,
      "Ġpe": 713,
      "le": 714,
      "ĠCh": 715,
      "ĠNo</w>": 716,
      "Ġsee</w>": 717,
      "Ġla": 718,
      "ven</w>": 719,
      "Ġno</w>": 720,
      "ĠThat</w>": 721,
      "Ġwhich</w>": 722,
      "use</w>": 723,
      "Ġle": 724,
      "Ġfo": 725,
      "Ġhas</w>": 726,
      "ci": 727,
      "ough</w>": 728,
      "Ġn</w>": 729,
      "ĠIn</w>": 730,
      "Ġment</w>": 731,
      "ace</w>": 732,
      "Ġwhen</w>": 733,
      "Ġwho</w>": 734,
      "ĠSt": 735,
      "Ġro": 736,
      "Ġsay</w>": 737,
      "ft</w>": 738,
      "Ġgot</w>": 739,
      "ĠBut</w>": 740,
      "is": 741,
      "Ġion</w>": 742,
      "Ġve</w>": 743,
      "id</w>": 744,
      "Ġcome</w>": 745,
      "Ġbeen</w>": 746,
      "ĠYeah</w>": 747,
      "Ġag": 748,
      "Ġsaid</w>": 749,
      "dy</w>": 750,
      "us</w>": 751,
      "ber</w>": 752,
      "Ġver": 753,
      "Ġcou": 754,
      "Ġmore</w>": 755,
      "son</w>": 756,
      "es</w>": 757,
      "tle</w>": 758,
      "Ġnow</w>": 759,
      "ĠSo</w>": 760,
      "Ġqu": 761,
      "di": 762,
      "ean</w>": 763,
      "Ġlook</w>": 764,
      "ff</w>": 765,
      "ose</w>": 766,
      "ew</w>": 767,
      "ree</w>": 768,
      "ity</w>": 769,
      "us": 770,
      "Ġen": 771,
      "eri": 772,
      "ople</w>": 773,
      "Ġ;</w>": 774,
      "ue</w>": 775,
      "Ġwork</w>": 776,
      "Ġtheir</w>": 777,
      "tion</w>": 778,
      "ble</w>": 779,
      "Ġit": 780,
      "rd</w>": 781,
      "Ġback</w>": 782,
      "Ġgoing</w>": 783,
      "Ġthen</w>": 784,
      "Ġpre": 785,
      "Ġcould</w>": 786,
      "Ġover</w>": 787,
      "si": 788,
      "Ġcause</w>": 789,
      "Ġother</w>": 790,
      "end</w>": 791,
      "Ġman</w>": 792,
      "ep</w>": 793,
      "low</w>": 794,
      "ĠA</w>": 795,
      "Ġlea": 796,
      "Ġdid</w>": 797,
      "ĠV": 798,
      "Ġpeople</w>": 799,
      "Ġfor": 800,
      "na</w>": 801,
      "ce": 802,
      "ly</w>": 803,
      "Ġfir": 804,
      "ous</w>": 805,
      "ap": 806,
      "Ġun": 807,
      "Ġthing</w>": 808,
      "Ġvery</w>": 809,
      "Ġtwo</w>": 810,
      "ĠThey</w>": 811,
      "ĠThi</w>": 812,
      "ĠShe</w>": 813,
      "Ġreal</w>": 814,
      "Ġun</w>": 815,
      "ru": 816,
      "Ġso": 817,
      "Ġday</w>": 818,
      "Ġgood</w>": 819,
      "Ġcomp": 820,
      "la": 821,
      "fe</w>": 822,
      "est</w>": 823,
      "reat</w>": 824,
      "ary</w>": 825,
      "ite</w>": 826,
      "Ġmi": 827,
      "Ġany</w>": 828,
      "Ġar": 829,
      "ĠWell</w>": 830,
      "ĠMa": 831,
      "Ġwhere</w>": 832,
      "du": 833,
      "ant</w>": 834,
      "Ġdown</w>": 835,
      "rea": 836,
      "Ġyear</w>": 837,
      "Ġfirst</w>": 838,
      "Ġhow</w>": 839,
      "Ġlit": 840,
      "ember</w>": 841,
      "so</w>": 842,
      "ank</w>": 843,
      "ĠÃ": 844,
      "Ġinto</w>": 845,
      "il</w>": 846,
      "ved</w>": 847,
      "sp": 848,
      "ick</w>": 849,
      "Ġgu": 850,
      "all</w>": 851,
      "ard</w>": 852,
      "kay</w>": 853,
      "lf</w>": 854,
      "Ġtake</w>": 855,
      "any</w>": 856,
      "te</w>": 857,
      "Ġmake</w>": 858,
      "Ġcall</w>": 859,
      "mp": 860,
      "Ġno": 861,
      "Ġever</w>": 862,
      "Ġour</w>": 863,
      "Ġaf": 864,
      "om</w>": 865,
      "Ġde</w>": 866,
      "Ġac": 867,
      "her</w>": 868,
      "Ġwi": 869,
      "Ġlittle</w>": 870,
      "Ġplay</w>": 871,
      "Ġd</w>": 872,
      "Ġful</w>": 873,
      "Ġ]</w>": 874,
      "Ġ[</w>": 875,
      "Ġalso</w>": 876,
      "orn</w>": 877,
      "Ġper": 878,
      "ad</w>": 879,
      "Ġmean</w>": 880,
      "lo": 881,
      "age</w>": 882,
      "ĠThere</w>": 883,
      "sn</w>": 884,
      "Ġsc": 885,
      "op</w>": 886,
      "ance</w>": 887,
      "Ġme": 888,
      "Ġ|</w>": 889,
      "ated</w>": 890,
      "ĠYes</w>": 891,
      "ab": 892,
      "Ġmu": 893,
      "ought</w>": 894,
      "ome": 895,
      "Ġad": 896,
      "Ġwell</w>": 897,
      "Ġfore</w>": 898,
      "Ġsa": 899,
      "ger</w>": 900,
      "Ġapp": 901,
      "Ġneed</w>": 902,
      "pt</w>": 903,
      "urn</w>": 904,
      "Ġbu": 905,
      "Ġexp": 906,
      "Ġpa": 907,
      "Ġcont": 908,
      "Ġafter</w>": 909,
      "vi": 910,
      "ence</w>": 911,
      "ĠAn": 912,
      "Ġact</w>": 913,
      "est": 914,
      "ent": 915,
      "ord</w>": 916,
      "am</w>": 917,
      "Ġoff</w>": 918,
      "Ġthan</w>": 919,
      "em</w>": 920,
      "ring</w>": 921,
      "Ġside</w>": 922,
      "art": 923,
      "ool</w>": 924,
      "Ġcame</w>": 925,
      "een</w>": 926,
      "ĠS</w>": 927,
      "Ġth</w>": 928,
      "yth</w>": 929,
      "ometh</w>": 930,
      "Ġshould</w>": 931,
      "sk</w>": 932,
      "Ġmost</w>": 933,
      "ad": 934,
      "Ġunder</w>": 935,
      "as": 936,
      "Ġho": 937,
      "Ġtell</w>": 938,
      "Ġmon": 939,
      "ail</w>": 940,
      "dn</w>": 941,
      "Ġfe": 942,
      "lu": 943,
      "ving</w>": 944,
      "Ġian</w>": 945,
      "Ġthese</w>": 946,
      "Ġtoo</w>": 947,
      "alk</w>": 948,
      "Ġpri": 949,
      "Ġhea": 950,
      "Ġmuch</w>": 951,
      "onna</w>": 952,
      "Ġcomm": 953,
      "Ġnew</w>": 954,
      "ory</w>": 955,
      "Ġsometh</w>": 956,
      "Ġgra": 957,
      "Ġself</w>": 958,
      "Ġmade</w>": 959,
      "ĠIf</w>": 960,
      "ile</w>": 961,
      "Ġpu": 962,
      "Ġor": 963,
      "ĠAm": 964,
      "row</w>": 965,
      "Ġgonna</w>": 966,
      "ĠUn": 967,
      "act</w>": 968,
      "um</w>": 969,
      "ip</w>": 970,
      "rie</w>": 971,
      "Ġable</w>": 972,
      "ouse</w>": 973,
      "Ġel": 974,
      "Ġput</w>": 975,
      "Ġwe": 976,
      "ition</w>": 977,
      "Ġsec": 978,
      "Ġmar": 979,
      "Ġlong</w>": 980,
      "ĠHow</w>": 981,
      "Ġlet</w>": 982,
      "ia</w>": 983,
      "tain</w>": 984,
      "Ġtalk</w>": 985,
      "Ġnever</w>": 986,
      "ĠOkay</w>": 987,
      "Ġjo": 988,
      "Ġdidn</w>": 989,
      "Ġround</w>": 990,
      "Ġeven</w>": 991,
      "Ġstu": 992,
      "rm</w>": 993,
      "Ġsm": 994,
      "Ġform</w>": 995,
      "ag": 996,
      "Ġturn</w>": 997,
      "ather</w>": 998,
      "ig": 999,
      "Ġits</w>": 1000,
      "os": 1001,
      "Ġthr": 1002,
      "ist": 1003,
      "ĠGo": 1004,
      "Ġop": 1005,
      "ĠIn": 1006,
      "Ġhel": 1007,
      "Ġgive</w>": 1008,
      "ye</w>": 1009,
      "Ġest</w>": 1010,
      "Ġold</w>": 1011,
      "Ġgr": 1012,
      "Ġhand</w>": 1013,
      "ach</w>": 1014,
      "dre": 1015,
      "Ġru": 1016,
      "Ġlife</w>": 1017,
      "Ġhead</w>": 1018,
      "Ġph": 1019,
      "Ġland</w>": 1020,
      "Ġagain</w>": 1021,
      "ute</w>": 1022,
      "ond</w>": 1023,
      "dent</w>": 1024,
      "Ġage</w>": 1025,
      "Ġplace</w>": 1026,
      "Ġmany</w>": 1027,
      "rt</w>": 1028,
      "ast</w>": 1029,
      "Ġmember</w>": 1030,
      "Ġpart</w>": 1031,
      "be</w>": 1032,
      "Ġstand</w>": 1033,
      "ple</w>": 1034,
      "Ġthree</w>": 1035,
      "Ġbl": 1036,
      "Ġki": 1037,
      "ĠWhy</w>": 1038,
      "ĠSe": 1039,
      "Ġgreat</w>": 1040,
      "de": 1041,
      "ĠNow</w>": 1042,
      "ĠAl": 1043,
      "air</w>": 1044,
      "Ġfri": 1045,
      "Ġname</w>": 1046,
      "Ġstart</w>": 1047,
      "Ġdiff": 1048,
      "ture</w>": 1049,
      "Ġvi": 1050,
      "Ġbro": 1051,
      "Ġi</w>": 1052,
      "Ġshow</w>": 1053,
      "pe</w>": 1054,
      "Ġhelp</w>": 1055,
      "Ġhome</w>": 1056,
      "Ġlove</w>": 1057,
      "Ġâ": 1058,
      "Ġthought</w>": 1059,
      "eep</w>": 1060,
      "Ġthrough</w>": 1061,
      "nce</w>": 1062,
      "Ġbody</w>": 1063,
      "ial</w>": 1064,
      "ĠLet</w>": 1065,
      "day</w>": 1066,
      "Ġthose</w>": 1067,
      "ĠRo": 1068,
      "Ġask</w>": 1069,
      "Ġever": 1070,
      "Ġmat": 1071,
      "Ġstill</w>": 1072,
      "Ġam</w>": 1073,
      "other</w>": 1074,
      "Ġcol": 1075,
      "ĠDo</w>": 1076,
      "Ġward</w>": 1077,
      "ek</w>": 1078,
      "sc": 1079,
      "ange</w>": 1080,
      "Ġfound</w>": 1081,
      "Ġity</w>": 1082,
      "int</w>": 1083,
      "Ġ_</w>": 1084,
      "ong</w>": 1085,
      "Ġfind</w>": 1086,
      "Ġlast</w>": 1087,
      "au": 1088,
      "Ġhouse</w>": 1089,
      "ot": 1090,
      "Ġdis</w>": 1091,
      "Ġship</w>": 1092,
      "ig</w>": 1093,
      "Ġgen": 1094,
      "Ġsin": 1095,
      "Ġown</w>": 1096,
      "Ġsw": 1097,
      "is</w>": 1098,
      "Ġatt": 1099,
      "outh</w>": 1100,
      "ily</w>": 1101,
      "ĠDon</w>": 1102,
      "wer</w>": 1103,
      "dd": 1104,
      "ress</w>": 1105,
      "ark</w>": 1106,
      "ĠLi": 1107,
      "Ġmust</w>": 1108,
      "ari": 1109,
      "Ġwent</w>": 1110,
      "eric": 1111,
      "ĠJo": 1112,
      "Ġnight</w>": 1113,
      "Ġless</w>": 1114,
      "pp</w>": 1115,
      "Ġwon</w>": 1116,
      "av": 1117,
      "Ġmin": 1118,
      "Ġist</w>": 1119,
      "ĠAmeric": 1120,
      "ĠAll</w>": 1121,
      "ĠâĻ": 1122,
      "ĠCome</w>": 1123,
      "Ġation</w>": 1124,
      "Ġtea": 1125,
      "irl</w>": 1126,
      "Ġfriend</w>": 1127,
      "Ġend</w>": 1128,
      "ild</w>": 1129,
      "ct": 1130,
      "Ġprob": 1131,
      "Ġic</w>": 1132,
      "Ġfam": 1133,
      "Ġpol": 1134,
      "Ġuse</w>": 1135,
      "nt": 1136,
      "umb</w>": 1137,
      "ĠBe</w>": 1138,
      "chool</w>": 1139,
      "Ġimp": 1140,
      "Ġsuch</w>": 1141,
      "ĠWhen</w>": 1142,
      "Ġual</w>": 1143,
      "Ġser": 1144,
      "Ġsame</w>": 1145,
      "ess</w>": 1146,
      "ern</w>": 1147,
      "Ġent</w>": 1148,
      "ave</w>": 1149,
      "ĠâĻª</w>": 1150,
      "Ġwri": 1151,
      "ĠMr</w>": 1152,
      "Ġhapp": 1153,
      "ro</w>": 1154,
      "ed": 1155,
      "Ġworld</w>": 1156,
      "Ġfin": 1157,
      "ease</w>": 1158,
      "Ġdu": 1159,
      "gan</w>": 1160,
      "ire</w>": 1161,
      "Ġmay</w>": 1162,
      "xt</w>": 1163,
      "Ġtry</w>": 1164,
      "Ġkind</w>": 1165,
      "Ġsupp": 1166,
      "Ġpart": 1167,
      "Ġinc": 1168,
      "rn</w>": 1169,
      "Ġwhy</w>": 1170,
      "Ġwom": 1171,
      "way</w>": 1172,
      "ell": 1173,
      "lish</w>": 1174,
      "Ġam": 1175,
      "tter</w>": 1176,
      "orm</w>": 1177,
      "ze</w>": 1178,
      "ĠAu": 1179,
      "Ġlot</w>": 1180,
      "ore</w>": 1181,
      "Ġdec": 1182,
      "ĠIs</w>": 1183,
      "Ġwith": 1184,
      "ĠMy</w>": 1185,
      "ĠWhere</w>": 1186,
      "Ġborn</w>": 1187,
      "Ġdiffer</w>": 1188,
      "ĠTH": 1189,
      "and": 1190,
      "ann": 1191,
      "Ġgirl</w>": 1192,
      "eld</w>": 1193,
      "Ġhu": 1194,
      "ĠHey</w>": 1195,
      "ĠOn</w>": 1196,
      "Ġness</w>": 1197,
      "Ġoff": 1198,
      "Ġread</w>": 1199,
      "Ġrea": 1200,
      "ton</w>": 1201,
      "gn": 1202,
      "Ġkill</w>": 1203,
      "Ġfeel</w>": 1204,
      "are</w>": 1205,
      "ill": 1206,
      "ĠThank</w>": 1207,
      "rect</w>": 1208,
      "gn</w>": 1209,
      "ĠSp": 1210,
      "Ġmight</w>": 1211,
      "erm": 1212,
      "Ġish</w>": 1213,
      "Ġdoe</w>": 1214,
      "lie": 1215,
      "Ġanother</w>": 1216,
      "Ġdri": 1217,
      "eral</w>": 1218,
      "if": 1219,
      "ater</w>": 1220,
      "Ġbr": 1221,
      "ph": 1222,
      "ĠMar": 1223,
      "ount</w>": 1224,
      "ĠNo": 1225,
      "Ġsur": 1226,
      "Ġmen</w>": 1227,
      "Ġboy</w>": 1228,
      "Ġfour</w>": 1229,
      "Ġkeep</w>": 1230,
      "ual</w>": 1231,
      "eg": 1232,
      "Ġalway</w>": 1233,
      "ere": 1234,
      "Ġsy": 1235,
      "ket</w>": 1236,
      "Ġsure</w>": 1237,
      "Ġtra": 1238,
      "ang</w>": 1239,
      "king</w>": 1240,
      "iv": 1241,
      "Ġtween</w>": 1242,
      "Ġhigh</w>": 1243,
      "orry</w>": 1244,
      "Ġnumb</w>": 1245,
      "Ġleft</w>": 1246,
      "me</w>": 1247,
      "Ġanyth</w>": 1248,
      "ĠCon": 1249,
      "ĠBo": 1250,
      "Ġdone</w>": 1251,
      "Ġbetter</w>": 1252,
      "eak</w>": 1253,
      "dge</w>": 1254,
      "Ġlive</w>": 1255,
      "ĠThen</w>": 1256,
      "Ġwhile</w>": 1257,
      "Ġbelie": 1258,
      "ssi": 1259,
      "sent</w>": 1260,
      "Ġob": 1261,
      "Ġlight</w>": 1262,
      "Ġfol": 1263,
      "Ġive</w>": 1264,
      "ish</w>": 1265,
      "Ġpre</w>": 1266,
      "os</w>": 1267,
      "Ġline</w>": 1268,
      "Ġguy</w>": 1269,
      "ĠAmerican</w>": 1270,
      "cess</w>": 1271,
      "rong</w>": 1272,
      "Ġgi": 1273,
      "Ġcour": 1274,
      "oun": 1275,
      "Ġare": 1276,
      "Ġword</w>": 1277,
      "ular</w>": 1278,
      "Ġspec": 1279,
      "ĠJu": 1280,
      "Ġroom</w>": 1281,
      "ĠNew</w>": 1282,
      "ĠLook</w>": 1283,
      "Ġdist": 1284,
      "Ġschool</w>": 1285,
      "rit": 1286,
      "Ġtold</w>": 1287,
      "ĠPl": 1288,
      "Ġmus": 1289,
      "Ġpub": 1290,
      "ake</w>": 1291,
      "Ġbook</w>": 1292,
      "Ġpoint</w>": 1293,
      "Ġball</w>": 1294,
      "ssion</w>": 1295,
      "Ġbig</w>": 1296,
      "Ġsea": 1297,
      "Ġperson</w>": 1298,
      "Ġreg": 1299,
      "Ġtil</w>": 1300,
      "oc": 1301,
      "Ġte": 1302,
      "Ġwater</w>": 1303,
      "ĠGod</w>": 1304,
      "our": 1305,
      "ith</w>": 1306,
      "Ġson</w>": 1307,
      "Ġcourse</w>": 1308,
      "Ġfather</w>": 1309,
      "ett</w>": 1310,
      "Ġopen</w>": 1311,
      "Ġcar": 1312,
      "Ġant</w>": 1313,
      "Ġsecond</w>": 1314,
      "vent</w>": 1315,
      "Ġmoney</w>": 1316,
      "ĠWho</w>": 1317,
      "ĠMi": 1318,
      "ision</w>": 1319,
      "ĠAre</w>": 1320,
      "Ġinclu": 1321,
      "Ġter": 1322,
      "ĠAs</w>": 1323,
      "Ġeye</w>": 1324,
      "Ġcom</w>": 1325,
      "ird</w>": 1326,
      "lic</w>": 1327,
      "Ġcare</w>": 1328,
      "ber": 1329,
      "ĠJust</w>": 1330,
      "es": 1331,
      "ra</w>": 1332,
      "ĠState</w>": 1333,
      "ant": 1334,
      "Ġbrea": 1335,
      "ĠCa": 1336,
      "ang": 1337,
      "Ġuh</w>": 1338,
      "by</w>": 1339,
      "ole</w>": 1340,
      "ject</w>": 1341,
      "Ġset</w>": 1342,
      "uck</w>": 1343,
      "Ġnation</w>": 1344,
      "ĠFor</w>": 1345,
      "eb": 1346,
      "as</w>": 1347,
      "Ġstate</w>": 1348,
      "Ġmother</w>": 1349,
      "Ġokay</w>": 1350,
      "Ġpresent</w>": 1351,
      "ope</w>": 1352,
      "ow": 1353,
      "esn</w>": 1354,
      "ybe</w>": 1355,
      "Ġtook</w>": 1356,
      "ative</w>": 1357,
      "mm": 1358,
      "omm": 1359,
      "read</w>": 1360,
      "Ġrec": 1361,
      "ak": 1362,
      "gin</w>": 1363,
      "Ġdi</w>": 1364,
      "ster</w>": 1365,
      "ĠRight</w>": 1366,
      "ain": 1367,
      "Ġerm</w>": 1368,
      "ĠBri": 1369,
      "land</w>": 1370,
      "Ġcar</w>": 1371,
      "Ġboth</w>": 1372,
      "orth</w>": 1373,
      "Ġis": 1374,
      "Ġprodu": 1375,
      "Ġwait</w>": 1376,
      "Ġmind</w>": 1377,
      "Ġseem</w>": 1378,
      "unn": 1379,
      "ĠSu": 1380,
      "ens": 1381,
      "ĠFr": 1382,
      "Ġnoth</w>": 1383,
      "Ġmain</w>": 1384,
      "rent</w>": 1385,
      "Ġnext</w>": 1386,
      "ĠCan</w>": 1387,
      "ult</w>": 1388,
      "Ġleave</w>": 1389,
      "ĠGood</w>": 1390,
      "NG</w>": 1391,
      "Ġeach</w>": 1392,
      "ĠDo": 1393,
      "ĠRe</w>": 1394,
      "ution</w>": 1395,
      "ist</w>": 1396,
      "Ġbit</w>": 1397,
      "Ġsaw</w>": 1398,
      "pri": 1399,
      "Ġfollow</w>": 1400,
      "Ġyeah</w>": 1401,
      "ĠAr": 1402,
      "Ġbest</w>": 1403,
      "Ġcover</w>": 1404,
      "Ġchar": 1405,
      "Ġacc": 1406,
      "ys": 1407,
      "Ġhard</w>": 1408,
      "Ġlar": 1409,
      "Ġmis</w>": 1410,
      "oup</w>": 1411,
      "Ġdoesn</w>": 1412,
      "ĠJoh": 1413,
      "Ġsk": 1414,
      "ĠHere</w>": 1415,
      "Ġhapp</w>": 1416,
      "vern</w>": 1417,
      "ĠUnit</w>": 1418,
      "Ġfamily</w>": 1419,
      "Ġlater</w>": 1420,
      "ĠNot</w>": 1421,
      "gle</w>": 1422,
      "ĠOne</w>": 1423,
      "Ġcount": 1424,
      "eath</w>": 1425,
      "Ġweek</w>": 1426,
      "lem</w>": 1427,
      "amp": 1428,
      "ri</w>": 1429,
      "ĠMo": 1430,
      "Ġass": 1431,
      "pon</w>": 1432,
      "Ġbea": 1433,
      "Ġteam</w>": 1434,
      "Ġgame</w>": 1435,
      "gy</w>": 1436,
      "ainst</w>": 1437,
      "vel</w>": 1438,
      "Ġpi": 1439,
      "ane</w>": 1440,
      "Ġether</w>": 1441,
      "dic": 1442,
      "ee</w>": 1443,
      "Ġface</w>": 1444,
      "oung</w>": 1445,
      "Ġdev": 1446,
      "Ġsign</w>": 1447,
      "ner</w>": 1448,
      "Ġfive</w>": 1449,
      "Ġmove</w>": 1450,
      "ich": 1451,
      "Ġman": 1452,
      "im</w>": 1453,
      "Ġenough</w>": 1454,
      "cc": 1455,
      "ream</w>": 1456,
      "per</w>": 1457,
      "Ġinter</w>": 1458,
      "Ġsol": 1459,
      "Ġminute</w>": 1460,
      "Ġseen</w>": 1461,
      "Ġagainst</w>": 1462,
      "ĠQ": 1463,
      "Ġcase</w>": 1464,
      "vers": 1465,
      "act": 1466,
      "Ġdirect</w>": 1467,
      "ici": 1468,
      "cept</w>": 1469,
      "pt": 1470,
      "Ġsmall</w>": 1471,
      "ildre": 1472,
      "Ġelse</w>": 1473,
      "ildren</w>": 1474,
      "ock</w>": 1475,
      "ever</w>": 1476,
      "Ġwithout</w>": 1477,
      "ross</w>": 1478,
      "tch</w>": 1479,
      "cy</w>": 1480,
      "ried</w>": 1481,
      "ken</w>": 1482,
      "Ġtog</w>": 1483,
      "Ġbri": 1484,
      "Ġloc": 1485,
      "Ġhear</w>": 1486,
      "Ġproblem</w>": 1487,
      "ĠThe": 1488,
      "ale</w>": 1489,
      "ĠAt</w>": 1490,
      "Ġess</w>": 1491,
      "Ġdef": 1492,
      "Ġheart</w>": 1493,
      "Ġorder</w>": 1494,
      "Ġpat": 1495,
      "yone</w>": 1496,
      "Ġhold</w>": 1497,
      "dea</w>": 1498,
      "Ġ/</w>": 1499,
      "ĠUh</w>": 1500,
      "ĠHis</w>": 1501,
      "Ġeat</w>": 1502,
      "ĠZ": 1503,
      "Ġfew</w>": 1504,
      "Ġnear</w>": 1505,
      "ĠPe": 1506,
      "ĠEn": 1507,
      "ren": 1508,
      "ach": 1509,
      "dition</w>": 1510,
      "vie</w>": 1511,
      "Ġsorry</w>": 1512,
      "Ġeveryth</w>": 1513,
      "Ġbelieve</w>": 1514,
      "Ġonce</w>": 1515,
      "Ġtri": 1516,
      "Ġappear</w>": 1517,
      "Ġsle": 1518,
      "Ġdoor</w>": 1519,
      "Ġext": 1520,
      "ĠYour</w>": 1521,
      "che</w>": 1522,
      "Ġarea</w>": 1523,
      "Ġidea</w>": 1524,
      "ef</w>": 1525,
      "Ġsim": 1526,
      "eck</w>": 1527,
      "rew</w>": 1528,
      "ĠDid</w>": 1529,
      "Ġtown</w>": 1530,
      "ĠTo</w>": 1531,
      "enn": 1532,
      "Ġair</w>": 1533,
      "Ġpower</w>": 1534,
      "Ġport</w>": 1535,
      "Ġence</w>": 1536,
      "ĠPro": 1537,
      "Ġpr": 1538,
      "Ġchildren</w>": 1539,
      "Ġstay</w>": 1540,
      "Ġau": 1541,
      "Ġsince</w>": 1542,
      "gue</w>": 1543,
      "itie</w>": 1544,
      "Ġtran": 1545,
      "Ġcity</w>": 1546,
      "ĠÃ©</w>": 1547,
      "ĠMm</w>": 1548,
      "ort": 1549,
      "ley</w>": 1550,
      "Ġlead</w>": 1551,
      "Ġvo": 1552,
      "Ġfoot</w>": 1553,
      "eat</w>": 1554,
      "Ġear</w>": 1555,
      "Ġcra": 1556,
      "Ġbad</w>": 1557,
      "Ġhum": 1558,
      "Ġcent": 1559,
      "Ġduring</w>": 1560,
      "Ġimport</w>": 1561,
      "ertain</w>": 1562,
      "Ġdra": 1563,
      "ing": 1564,
      "Ġquite</w>": 1565,
      "ĠJohn</w>": 1566,
      "Ġance</w>": 1567,
      "ĠSome</w>": 1568,
      "lie</w>": 1569,
      "Ġmovie</w>": 1570,
      "Ġwal": 1571,
      "sident</w>": 1572,
      "ev": 1573,
      "estion</w>": 1574,
      "Ġresp": 1575,
      "Ġperf": 1576,
      "Ġisn</w>": 1577,
      "Ġplease</w>": 1578,
      "Ġhalf</w>": 1579,
      "Ġchange</w>": 1580,
      "Ġrun</w>": 1581,
      "Ġtoday</w>": 1582,
      "ury</w>": 1583,
      "ĠPri": 1584,
      "Ġgett</w>": 1585,
      "ĠTo": 1586,
      "stem</w>": 1587,
      "ĠGo</w>": 1588,
      "Ġsort</w>": 1589,
      "Ġstr": 1590,
      "Ġyoung</w>": 1591,
      "ĠEx": 1592,
      "Ġhour</w>": 1593,
      "Ġwoman</w>": 1594,
      "Ġthough</w>": 1595,
      "Ġ..</w>": 1596,
      "Ġcompl": 1597,
      "ast": 1598,
      "ork</w>": 1599,
      "ĠPre": 1600,
      "Ġgroup</w>": 1601,
      "Ġquestion</w>": 1602,
      "ah</w>": 1603,
      "Ġwhole</w>": 1604,
      "Ġmeet</w>": 1605,
      "ĠRu": 1606,
      "ĠCol": 1607,
      "Ġsix</w>": 1608,
      "Ġcrea": 1609,
      "ind": 1610,
      "Ġsen": 1611,
      "Ġmusic</w>": 1612,
      "Ġnice</w>": 1613,
      "lect</w>": 1614,
      "Ġlaw</w>": 1615,
      "sh": 1616,
      "Ġhun": 1617,
      "ser": 1618,
      "Ġheard</w>": 1619,
      "ĠSc": 1620,
      "Ġpossi": 1621,
      "Ġmatter</w>": 1622,
      "Ġarm</w>": 1623,
      "Ġhon": 1624,
      "Ġpop": 1625,
      "Ġwalk</w>": 1626,
      "Ġlow</w>": 1627,
      "tty</w>": 1628,
      "ath": 1629,
      "ither</w>": 1630,
      "Ġstop</w>": 1631,
      "Ġinst": 1632,
      "az": 1633,
      "aint</w>": 1634,
      "reen</w>": 1635,
      "Ġconc": 1636,
      "ĠChri": 1637,
      "adi": 1638,
      "ĠAft</w>": 1639,
      "Ġyet</w>": 1640,
      "ina</w>": 1641,
      "ise</w>": 1642,
      "Ġus": 1643,
      "ass</w>": 1644,
      "Ġsir</w>": 1645,
      "Ġcur": 1646,
      "ator</w>": 1647,
      "Ġty": 1648,
      "Ġpass</w>": 1649,
      "vice</w>": 1650,
      "Ġconsi": 1651,
      "Ġfar</w>": 1652,
      "eas": 1653,
      "Ġsystem</w>": 1654,
      "Ġjob</w>": 1655,
      "Ġhaving</w>": 1656,
      "Ġview</w>": 1657,
      "Ġmorn</w>": 1658,
      "ĠQu": 1659,
      "lm</w>": 1660,
      "ĠING</w>": 1661,
      "Ġsong</w>": 1662,
      "Ġpay</w>": 1663,
      "Ġknew</w>": 1664,
      "swer</w>": 1665,
      "itch</w>": 1666,
      "Ġyes</w>": 1667,
      "Ġwatch</w>": 1668,
      "Ġbring</w>": 1669,
      "min": 1670,
      "ty</w>": 1671,
      "ĠGet</w>": 1672,
      "Ġcu": 1673,
      "Ġhuh</w>": 1674,
      "Ġear": 1675,
      "Ġhappen</w>": 1676,
      "ital</w>": 1677,
      "Ġbus": 1678,
      "igh</w>": 1679,
      "Ġupon</w>": 1680,
      "Ġdeath</w>": 1681,
      "Ġeff": 1682,
      "zed</w>": 1683,
      "Ġbreak</w>": 1684,
      "ĠKing</w>": 1685,
      "fer</w>": 1686,
      "Ġalread</w>": 1687,
      "Ġinv": 1688,
      "Ġally</w>": 1689,
      "Ġalong</w>": 1690,
      "onder</w>": 1691,
      "Ġmonth</w>": 1692,
      "Ġsoon</w>": 1693,
      "ph</w>": 1694,
      "able</w>": 1695,
      "cial</w>": 1696,
      "Ġcountry</w>": 1697,
      "Ġcor": 1698,
      "Ġinf": 1699,
      "Ġwrong</w>": 1700,
      "Ġanswer</w>": 1701,
      "Ġfel": 1702,
      "od</w>": 1703,
      "Ġspeak</w>": 1704,
      "ulation</w>": 1705,
      "Ġbrother</w>": 1706,
      "Ġsleep</w>": 1707,
      "id": 1708,
      "Ġgovern</w>": 1709,
      "Ġgave</w>": 1710,
      "ĠPh": 1711,
      "Ġdead</w>": 1712,
      "Ġsn": 1713,
      "ER</w>": 1714,
      "ect": 1715,
      "gg": 1716,
      "Ġcount</w>": 1717,
      "Ġpublic</w>": 1718,
      "aper</w>": 1719,
      "Ġwife</w>": 1720,
      "ught</w>": 1721,
      "ĠMay</w>": 1722,
      "Ġsound</w>": 1723,
      "ĠGerm": 1724,
      "bo": 1725,
      "illion</w>": 1726,
      "don</w>": 1727,
      "Ġsub</w>": 1728,
      "Ġhor": 1729,
      "ĠCo": 1730,
      "Ġhur": 1731,
      "ĠSo": 1732,
      "ete</w>": 1733,
      "ery</w>": 1734,
      "itic</w>": 1735,
      "ural</w>": 1736,
      "itt</w>": 1737,
      "Ġpar": 1738,
      "Ġexc": 1739,
      "Ġie</w>": 1740,
      "Ġchild</w>": 1741,
      "cle</w>": 1742,
      "ech": 1743,
      "ump</w>": 1744,
      "aught</w>": 1745,
      "Ġ></w>": 1746,
      "eet</w>": 1747,
      "atch</w>": 1748,
      "Ġ#</w>": 1749,
      "Ġgone</w>": 1750,
      "elop</w>": 1751,
      "Ġcontin": 1752,
      "Ġmom": 1753,
      "Ġbuild</w>": 1754,
      "Ġequ": 1755,
      "io</w>": 1756,
      "Ġfine</w>": 1757,
      "Ġwan": 1758,
      "Ġcertain</w>": 1759,
      "Ġinclud</w>": 1760,
      "ility</w>": 1761,
      "rict</w>": 1762,
      "amp</w>": 1763,
      "ĠJan": 1764,
      "Ġtop</w>": 1765,
      "Ġkid</w>": 1766,
      "Ġfire</w>": 1767,
      "ivers": 1768,
      "ric": 1769,
      "ral</w>": 1770,
      "Ġsho": 1771,
      "ĠTHE</w>": 1772,
      "ay": 1773,
      "Ġcap": 1774,
      "Ġfact</w>": 1775,
      "Ġmoment</w>": 1776,
      "ample</w>": 1777,
      "ably</w>": 1778,
      "Ġbegan</w>": 1779,
      "ĠBu": 1780,
      "ilt</w>": 1781,
      "ĠNe": 1782,
      "Ġlearn</w>": 1783,
      "Ġstory</w>": 1784,
      "Ġial</w>": 1785,
      "ĠMon": 1786,
      "Ġ*</w>": 1787,
      "ret</w>": 1788,
      "ĠIs": 1789,
      "Ġpretty</w>": 1790,
      "anc": 1791,
      "Ġthank</w>": 1792,
      "nk</w>": 1793,
      "Ġfall</w>": 1794,
      "ĠIt": 1795,
      "ĠGe": 1796,
      "ĠGu": 1797,
      "ĠAb": 1798,
      "ece</w>": 1799,
      "lin</w>": 1800,
      "Ġcons": 1801,
      "og": 1802,
      "ĠYO": 1803,
      "Ġvis": 1804,
      "Ġju": 1805,
      "Ġmaking</w>": 1806,
      "ĠBl": 1807,
      "Ġhist": 1808,
      "tten</w>": 1809,
      "Ġfight</w>": 1810,
      "Ġfl": 1811,
      "Ġwasn</w>": 1812,
      "Ġlost</w>": 1813,
      "lt</w>": 1814,
      "ĠDu": 1815,
      "ĠPar": 1816,
      "elf</w>": 1817,
      "Ġoft</w>": 1818,
      "Ġlate</w>": 1819,
      "Ġhope</w>": 1820,
      "ĠTw": 1821,
      "Ġemp": 1822,
      "Ġpos": 1823,
      "ac</w>": 1824,
      "ti</w>": 1825,
      "Ġgrow</w>": 1826,
      "ĠIndi": 1827,
      "Ġfree</w>": 1828,
      "oke</w>": 1829,
      "dd</w>": 1830,
      "itu": 1831,
      "Ġtrain</w>": 1832,
      "ĠDi": 1833,
      "orrow</w>": 1834,
      "ait</w>": 1835,
      "Ġsuc": 1836,
      "Ġpolitic</w>": 1837,
      "Ġstre": 1838,
      "Ġshort</w>": 1839,
      "ĠMe": 1840,
      "Ġclose</w>": 1841,
      "ron</w>": 1842,
      "ĠLe": 1843,
      "Ġrecord</w>": 1844,
      "Ġval": 1845,
      "Ġphone</w>": 1846,
      "Ġfuck</w>": 1847,
      "rest</w>": 1848,
      "ma</w>": 1849,
      "Ġbaby</w>": 1850,
      "Ġprof": 1851,
      "ana</w>": 1852,
      "Ġground</w>": 1853,
      "rs</w>": 1854,
      "ister</w>": 1855,
      "Ġdevelop</w>": 1856,
      "ĠSouth</w>": 1857,
      "Ġwonder</w>": 1858,
      "Ġgoe</w>": 1859,
      "ĠWor": 1860,
      "Ġem": 1861,
      "Ġfast</w>": 1862,
      "Ġshall</w>": 1863,
      "Ġart</w>": 1864,
      "ouble</w>": 1865,
      "ature</w>": 1866,
      "Ġwomen</w>": 1867,
      "dred</w>": 1868,
      "Ġism</w>": 1869,
      "Ġusual</w>": 1870,
      "Ġdro": 1871,
      "Ġprot": 1872,
      "ric</w>": 1873,
      "ap</w>": 1874,
      "Ġreason</w>": 1875,
      "ĠHa": 1876,
      "Ġwhite</w>": 1877,
      "ĠC</w>": 1878,
      "ĠHu": 1879,
      "Ġhuman</w>": 1880,
      "Ġwanna</w>": 1881,
      "Ġlarge</w>": 1882,
      "Ġwar</w>": 1883,
      "all": 1884,
      "ication</w>": 1885,
      "Ġprog": 1886,
      "ove</w>": 1887,
      "Ġgiven</w>": 1888,
      "Ġper</w>": 1889,
      "ĠEu": 1890,
      "ĠLa": 1891,
      "Ġclear</w>": 1892,
      "Ġfull</w>": 1893,
      "ello</w>": 1894,
      "ase</w>": 1895,
      "Ġbat": 1896,
      "da</w>": 1897,
      "Ġseason</w>": 1898,
      "ney</w>": 1899,
      "ĠThese</w>": 1900,
      "ĠCar": 1901,
      "Ġconst": 1902,
      "gg</w>": 1903,
      "Ġim": 1904,
      "Ġlist</w>": 1905,
      "Ġfield</w>": 1906,
      "Ġprobably</w>": 1907,
      "Ġrest</w>": 1908,
      "lig": 1909,
      "ince</w>": 1910,
      "Ġmod": 1911,
      "Ġori": 1912,
      "Ġclass</w>": 1913,
      "uly</w>": 1914,
      "ĠMrs</w>": 1915,
      "Ġfinal</w>": 1916,
      "Ġconf": 1917,
      "ĠPlease</w>": 1918,
      "ĠSw": 1919,
      "Ġvol": 1920,
      "ash": 1921,
      "Ġtrue</w>": 1922,
      "etter</w>": 1923,
      "ĠYork</w>": 1924,
      "ĠCl": 1925,
      "Ġese</w>": 1926,
      "Ġe</w>": 1927,
      "ĠComm": 1928,
      "Ġago</w>": 1929,
      "ili": 1930,
      "Ġwhe": 1931,
      "Ġbusi</w>": 1932,
      "Ġoh</w>": 1933,
      "atic</w>": 1934,
      "ram": 1935,
      "Ġtree</w>": 1936,
      "Ġwood</w>": 1937,
      "Ġhundred</w>": 1938,
      "uary</w>": 1939,
      "ĠWil": 1940,
      "rch</w>": 1941,
      "ĠUnivers": 1942,
      "ctor</w>": 1943,
      "Ġhind</w>": 1944,
      "Ġjoin</w>": 1945,
      "Ġhaven</w>": 1946,
      "Ġhappy</w>": 1947,
      "Ġee</w>": 1948,
      "Ġpossible</w>": 1949,
      "Ġocc": 1950,
      "ĠNation</w>": 1951,
      "ĠCount</w>": 1952,
      "Ġaff": 1953,
      "ĠEng": 1954,
      "ĠWith</w>": 1955,
      "Ġfilm</w>": 1956,
      "Ġdep": 1957,
      "Ġtaken</w>": 1958,
      "ĠAd": 1959,
      "ĠSee</w>": 1960,
      "Ġleas</w>": 1961,
      "Ġ$</w>": 1962,
      "apan</w>": 1963,
      "ide</w>": 1964,
      "ĠUniversity</w>": 1965,
      "Ġblack</w>": 1966,
      "ĠOf</w>": 1967,
      "ĠWorld</w>": 1968,
      "itt": 1969,
      "Ġest": 1970,
      "veral</w>": 1971,
      "Ġgla": 1972,
      "Ġrece": 1973,
      "ety</w>": 1974,
      "Ġdeal</w>": 1975,
      "rol</w>": 1976,
      "Ġdaught</w>": 1977,
      "jor</w>": 1978,
      "Ġprom": 1979,
      "Ġleast</w>": 1980,
      "ĠJapan</w>": 1981,
      "Ġpur": 1982,
      "Ġroad</w>": 1983,
      "bum</w>": 1984,
      "ib": 1985,
      "erest</w>": 1986,
      "rious</w>": 1987,
      "Ġtele</w>": 1988,
      "Ġpick</w>": 1989,
      "yself</w>": 1990,
      "Ġsqu": 1991,
      "Ġfinish</w>": 1992,
      "ĠHar": 1993,
      "ĠFro": 1994,
      "Ġallow</w>": 1995,
      "Ġrel": 1996,
      "uti</w>": 1997,
      "Ġtype</w>": 1998,
      "Ġmarried</w>": 1999,
      "Ġsearch</w>": 2000,
      "Ġous</w>": 2001,
      "Ġexample</w>": 2002,
      "ĠJanuary</w>": 2003,
      "Ġmyself</w>": 2004,
      "Ġoper": 2005,
      "Ġevent</w>": 2006,
      "Ġmillion</w>": 2007,
      "Ġstar</w>": 2008,
      "sse</w>": 2009,
      "ĠTr": 2010,
      "Ġfront</w>": 2011,
      "ĠLea": 2012,
      "Ġwrit</w>": 2013,
      "Ġcommun": 2014,
      "dden</w>": 2015,
      "Ġtri</w>": 2016,
      "ĠNorth</w>": 2017,
      "Ġopp": 2018,
      "Ġmaybe</w>": 2019,
      "ĠAh</w>": 2020,
      "Ġconsider</w>": 2021,
      "ention</w>": 2022,
      "ict": 2023,
      "urch</w>": 2024,
      "gust</w>": 2025,
      "ract</w>": 2026,
      "Ġterm</w>": 2027,
      "oud</w>": 2028,
      "Ġten</w>": 2029,
      "Ġblood</w>": 2030,
      "ĠMaybe</w>": 2031,
      "Ġnam</w>": 2032,
      "ll": 2033,
      "ĠHello</w>": 2034,
      "ĠLu": 2035,
      "ĠHo": 2036,
      "scri": 2037,
      "Ġboard</w>": 2038,
      "inn</w>": 2039,
      "Ġbas": 2040,
      "Ġsupport</w>": 2041,
      "lve</w>": 2042,
      "ĠAust": 2043,
      "omp": 2044,
      "Ġinterest</w>": 2045,
      "ĠHave</w>": 2046,
      "Ġalone</w>": 2047,
      "Ġim</w>": 2048,
      "ous": 2049,
      "ĠEnglish</w>": 2050,
      "ĠYOU</w>": 2051,
      "EA": 2052,
      "Ġgeneral</w>": 2053,
      "ĠMarch</w>": 2054,
      "ren</w>": 2055,
      "Ġat": 2056,
      "Ġpiece</w>": 2057,
      "Ġcompany</w>": 2058,
      "Ġalbum</w>": 2059,
      "Ġpress</w>": 2060,
      "ĠB</w>": 2061,
      "ess": 2062,
      "ape</w>": 2063,
      "Ġreach</w>": 2064,
      "Ġbrought</w>": 2065,
      "angu": 2066,
      "ero</w>": 2067,
      "Ġpend</w>": 2068,
      "Ġvers": 2069,
      "ĠT</w>": 2070,
      "ĠBar": 2071,
      "ĠMin": 2072,
      "ĠFo": 2073,
      "Ġguess</w>": 2074,
      "icture</w>": 2075,
      "Ġdog</w>": 2076,
      "Ġservice</w>": 2077,
      "Ġsto": 2078,
      "que</w>": 2079,
      "Ġexperi": 2080,
      "Ġappro": 2081,
      "unch</w>": 2082,
      "Ġstru": 2083,
      "Ġann": 2084,
      "Ġdom</w>": 2085,
      "Ġfre": 2086,
      "Ġselve</w>": 2087,
      "ĠD</w>": 2088,
      "ub</w>": 2089,
      "Ġbed</w>": 2090,
      "Ġtaking</w>": 2091,
      "Ġdrink</w>": 2092,
      "ument</w>": 2093,
      "Ġfood</w>": 2094,
      "Ġserie</w>": 2095,
      "Ġcri": 2096,
      "ĠChar": 2097,
      "ical</w>": 2098,
      "Ġlau": 2099,
      "Ġelect</w>": 2100,
      "Ġl</w>": 2101,
      "Ġmark</w>": 2102,
      "ah": 2103,
      "Ġvari": 2104,
      "Ġcut</w>": 2105,
      "Ġband</w>": 2106,
      "ĠDe": 2107,
      "Ġseveral</w>": 2108,
      "Ġ%</w>": 2109,
      "ĠJune</w>": 2110,
      "ĠM</w>": 2111,
      "Ġwish</w>": 2112,
      "Ġvoice</w>": 2113,
      "Ġmoved</w>": 2114,
      "rench</w>": 2115,
      "Ġdiv": 2116,
      "ern": 2117,
      "Ġgun</w>": 2118,
      "ĠCan": 2119,
      "ddle</w>": 2120,
      "ied</w>": 2121,
      "utt</w>": 2122,
      "AR": 2123,
      "ĠEn</w>": 2124,
      "Ġadv": 2125,
      "ĠNov": 2126,
      "ĠOct": 2127,
      "Ġsingle</w>": 2128,
      "Ġheld</w>": 2129,
      "ĠDec": 2130,
      "ĠBrit</w>": 2131,
      "Ġvision</w>": 2132,
      "Ġdraw</w>": 2133,
      "ĠEuro": 2134,
      "Ġhap</w>": 2135,
      "ĠHow": 2136,
      "ouch</w>": 2137,
      "Ġcli": 2138,
      "acter</w>": 2139,
      "ĠPo": 2140,
      "Ġsli": 2141,
      "Ġanim": 2142,
      "Ġteach</w>": 2143,
      "ER": 2144,
      "anguage</w>": 2145,
      "ĠU</w>": 2146,
      "ka</w>": 2147,
      "Ġflow</w>": 2148,
      "Ġorigin</w>": 2149,
      "ĠSept": 2150,
      "lia</w>": 2151,
      "Ġbeauti</w>": 2152,
      "ND</w>": 2153,
      "Ġdie</w>": 2154,
      "Ġlaugh</w>": 2155,
      "ori": 2156,
      "Ġeight</w>": 2157,
      "rib": 2158,
      "reer</w>": 2159,
      "ĠGra": 2160,
      "Ġton": 2161,
      "Ġexpl": 2162,
      "Ġking</w>": 2163,
      "Ġstuff</w>": 2164,
      "Ġeither</w>": 2165,
      "Ġlay</w>": 2166,
      "Ġstead</w>": 2167,
      "Ġevery</w>": 2168,
      "arm</w>": 2169,
      "ade</w>": 2170,
      "Ġz": 2171,
      "ĠSeptember</w>": 2172,
      "Ġrather</w>": 2173,
      "Ġtem": 2174,
      "Ġattack</w>": 2175,
      "ober</w>": 2176,
      "Ġflo": 2177,
      "ment</w>": 2178,
      "Ġexpect</w>": 2179,
      "Ġparty</w>": 2180,
      "pril</w>": 2181,
      "Ġmil": 2182,
      "ĠOctober</w>": 2183,
      "ĠBro": 2184,
      "Ġern</w>": 2185,
      "ruct</w>": 2186,
      "ĠApril</w>": 2187,
      "ert</w>": 2188,
      "ai</w>": 2189,
      "Ġpaper</w>": 2190,
      "Ġquick</w>": 2191,
      "Ġstation</w>": 2192,
      "Ġdear</w>": 2193,
      "Ġforce</w>": 2194,
      "led</w>": 2195,
      "Ġfun": 2196,
      "ament</w>": 2197,
      "ĠJuly</w>": 2198,
      "Ġtail</w>": 2199,
      "Ġperform</w>": 2200,
      "tta</w>": 2201,
      "Ġap": 2202,
      "ĠAugust</w>": 2203,
      "ration</w>": 2204,
      "ult": 2205,
      "Ġcreat</w>": 2206,
      "Ġfig": 2207,
      "the</w>": 2208,
      "Ġev": 2209,
      "Ġletter</w>": 2210,
      "ĠGr": 2211,
      "Ġwithin</w>": 2212,
      "Ġliving</w>": 2213,
      "Ġpartic": 2214,
      "Ġsult</w>": 2215,
      "Ġry</w>": 2216,
      "ĠGre": 2217,
      "Ġfea": 2218,
      "ĠLike</w>": 2219,
      "die</w>": 2220,
      "Ġleg": 2221,
      "Ġmet": 2222,
      "Ġcharacter</w>": 2223,
      "Ġinclude</w>": 2224,
      "Ġplan</w>": 2225,
      "irt</w>": 2226,
      "Ġseven</w>": 2227,
      "Ġsit</w>": 2228,
      "ha</w>": 2229,
      "Ġlanguage</w>": 2230,
      "ĠRe": 2231,
      "sten</w>": 2232,
      "Ġsil": 2233,
      "ĠEurope</w>": 2234,
      "ĠMiss</w>": 2235,
      "Ġsea</w>": 2236,
      "duc": 2237,
      "ck": 2238,
      "ampion</w>": 2239,
      "Ġorgan</w>": 2240,
      "Ġproduct</w>": 2241,
      "Ġsense</w>": 2242,
      "Ġfish</w>": 2243,
      "ĠOr</w>": 2244,
      "sy": 2245,
      "Ġbuy</w>": 2246,
      "Ġchang</w>": 2247,
      "Ġsuccess</w>": 2248,
      "Ġsister</w>": 2249,
      "Ġling</w>": 2250,
      "Ġpicture</w>": 2251,
      "yn": 2252,
      "Ġsent</w>": 2253,
      "Ġnorth</w>": 2254,
      "ĠRi": 2255,
      "ĠEver": 2256,
      "Ġhair</w>": 2257,
      "Ġhit</w>": 2258,
      "une</w>": 2259,
      "Ġrev": 2260,
      "Ġcommon</w>": 2261,
      "ĠAf": 2262,
      "pper</w>": 2263,
      "Ġbas</w>": 2264,
      "Ġact": 2265,
      "ĠDecember</w>": 2266,
      "Ġsci": 2267,
      "Ġred</w>": 2268,
      "Ġcro": 2269,
      "Ġfa": 2270,
      "end": 2271,
      "ĠÂ": 2272,
      "inner</w>": 2273,
      "ĠPer": 2274,
      "ense</w>": 2275,
      "ĠGeor": 2276,
      "Ġpolice</w>": 2277,
      "bert</w>": 2278,
      "Ġthird</w>": 2279,
      "ĠFrench</w>": 2280,
      "Ġsub": 2281,
      "Ġhorse</w>": 2282,
      "Ġtom": 2283,
      "Ġjoy</w>": 2284,
      "Ġsouth</w>": 2285,
      "ĠNovember</w>": 2286,
      "Ġlived</w>": 2287,
      "Ġspecial</w>": 2288,
      "lege</w>": 2289,
      "ĠBy</w>": 2290,
      "Ġtreat</w>": 2291,
      "Ġwear</w>": 2292,
      "ousand</w>": 2293,
      "ĠSte": 2294,
      "ief</w>": 2295,
      "Ġoffice</w>": 2296,
      "ĠTake</w>": 2297,
      "ign</w>": 2298,
      "Ġexact</w>": 2299,
      "ĠGen": 2300,
      "Ġcann": 2301,
      "ram</w>": 2302,
      "Ġfelt</w>": 2303,
      "Ġadd</w>": 2304,
      "Ġdream</w>": 2305,
      "sis</w>": 2306,
      "ĠMan": 2307,
      "Ġty</w>": 2308,
      "ler</w>": 2309,
      "Ġcr": 2310,
      "Ġshot</w>": 2311,
      "zation</w>": 2312,
      "Ġlisten</w>": 2313,
      "ha": 2314,
      "deo</w>": 2315,
      "Ġtrans": 2316,
      "ĠMus": 2317,
      "pping</w>": 2318,
      "Ġlevel</w>": 2319,
      "Ġoffic": 2320,
      "Ġeffect</w>": 2321,
      "Ġcheck</w>": 2322,
      "ious</w>": 2323,
      "Ġbuilt</w>": 2324,
      "Ġdark</w>": 2325,
      "Ġpoor</w>": 2326,
      "ebru": 2327,
      "ĠCu": 2328,
      "usb": 2329,
      "Ġprov": 2330,
      "Ġstrong</w>": 2331,
      "Ġclo": 2332,
      "Ġacross</w>": 2333,
      "orn": 2334,
      "Ġcir": 2335,
      "ĠFebru": 2336,
      "ĠFebruary</w>": 2337,
      "ĠWait</w>": 2338,
      "ĠOr": 2339,
      "dit</w>": 2340,
      "usband</w>": 2341,
      "ak</w>": 2342,
      "Ġcareer</w>": 2343,
      "ĠMich": 2344,
      "ror</w>": 2345,
      "ĠWar</w>": 2346,
      "ON</w>": 2347,
      "Ġposition</w>": 2348,
      "ĠFrance</w>": 2349,
      "ony</w>": 2350,
      "ement</w>": 2351,
      "lar</w>": 2352,
      "Ġsex</w>": 2353,
      "Ġstep</w>": 2354,
      "Ġlocal</w>": 2355,
      "Ġtouch</w>": 2356,
      "Ġthousand</w>": 2357,
      "Ġco</w>": 2358,
      "Ġclub</w>": 2359,
      "Ġhurt</w>": 2360,
      "echn": 2361,
      "igh": 2362,
      "ĠFrom</w>": 2363,
      "Ġtit": 2364,
      "Ġmajor</w>": 2365,
      "Ġblo": 2366,
      "Ġvisit</w>": 2367,
      "per": 2368,
      "Ġpast</w>": 2369,
      "easure</w>": 2370,
      "Ġregion</w>": 2371,
      "Ġbird</w>": 2372,
      "mit</w>": 2373,
      "ĠPresident</w>": 2374,
      "ĠBra": 2375,
      "Ġhell</w>": 2376,
      "ĠGerman</w>": 2377,
      "lif": 2378,
      "Ġav": 2379,
      "aim</w>": 2380,
      "AT</w>": 2381,
      "Ġwrite</w>": 2382,
      "Ġchance</w>": 2383,
      "Ġhusband</w>": 2384,
      "tal</w>": 2385,
      "ĠLon": 2386,
      "Ġimm": 2387,
      "Ġfur": 2388,
      "ĠÄ": 2389,
      "Ġsweet</w>": 2390,
      "Ġsend</w>": 2391,
      "ĠHi</w>": 2392,
      "Ġization</w>": 2393,
      "Ġbur": 2394,
      "Ġdest": 2395,
      "ĠO</w>": 2396,
      "Ġrock</w>": 2397,
      "Ġsafe</w>": 2398,
      "Ġstudent</w>": 2399,
      "Ġtable</w>": 2400,
      "ama</w>": 2401,
      "Ġdet": 2402,
      "LL</w>": 2403,
      "eer</w>": 2404,
      "Ġgrand</w>": 2405,
      "Ġauth": 2406,
      "ept</w>": 2407,
      "Ġseat</w>": 2408,
      "Ġcomplete</w>": 2409,
      "din": 2410,
      "unning</w>": 2411,
      "Ġfeet</w>": 2412,
      "Ġhistory</w>": 2413,
      "Ġplan": 2414,
      "Ġif": 2415,
      "omin": 2416,
      "AN</w>": 2417,
      "ata</w>": 2418,
      "ĠEl": 2419,
      "OU": 2420,
      "ĠCity</w>": 2421,
      "ency</w>": 2422,
      "Ġparticular</w>": 2423,
      "Ġanimal</w>": 2424,
      "Ġsun</w>": 2425,
      "ĠÅ": 2426,
      "ĠDe</w>": 2427,
      "Ġstood</w>": 2428,
      "Ġmine</w>": 2429,
      "irth</w>": 2430,
      "ling</w>": 2431,
      "Ġo</w>": 2432,
      "Ġfair</w>": 2433,
      "ĠDav": 2434,
      "ived</w>": 2435,
      "Ġtill</w>": 2436,
      "Ġparent</w>": 2437,
      "ĠErm</w>": 2438,
      "ĠUn</w>": 2439,
      "Ġmet</w>": 2440,
      "icip": 2441,
      "ĠInter</w>": 2442,
      "ĠPeter</w>": 2443,
      "iz": 2444,
      "Ġhough</w>": 2445,
      "Ġeas</w>": 2446,
      "Ġcentury</w>": 2447,
      "ction</w>": 2448,
      "ene</w>": 2449,
      "ĠMari": 2450,
      "Ġbox</w>": 2451,
      "indow</w>": 2452,
      "unk</w>": 2453,
      "erry</w>": 2454,
      "ĠHowever</w>": 2455,
      "Ġgotta</w>": 2456,
      "Ġpopulation</w>": 2457,
      "Ġwritten</w>": 2458,
      "den</w>": 2459,
      "Ġelect": 2460,
      "anc</w>": 2461,
      "Ġ=</w>": 2462,
      "ĠGreat</w>": 2463,
      "irst</w>": 2464,
      "Ġgold</w>": 2465,
      "Ġcontrol</w>": 2466,
      "ountain</w>": 2467,
      "ommy</w>": 2468,
      "Ġref": 2469,
      "cil</w>": 2470,
      "Ġspace</w>": 2471,
      "my</w>": 2472,
      "ĠTell</w>": 2473,
      "Ġgar": 2474,
      "Ġtotal</w>": 2475,
      "Ġmur": 2476,
      "ester</w>": 2477,
      "ĠOK</w>": 2478,
      "Ġlon": 2479,
      "Ġwhether</w>": 2480,
      "gu": 2481,
      "Ġfigure</w>": 2482,
      "ier</w>": 2483,
      "ĠHer</w>": 2484,
      "ula</w>": 2485,
      "ik": 2486,
      "Ġ<</w>": 2487,
      "ĠTwo</w>": 2488,
      "Ġtest</w>": 2489,
      "Ġprotect</w>": 2490,
      "Ġtwent</w>": 2491,
      "Ġanyone</w>": 2492,
      "Ġcouple</w>": 2493,
      "Ġworry</w>": 2494,
      "Ġtru": 2495,
      "Ġwea": 2496,
      "Ġtrouble</w>": 2497,
      "ĠReal</w>": 2498,
      "Ġdam": 2499,
      "Ġfav": 2500,
      "Ġdescri": 2501,
      "Ġpull</w>": 2502,
      "Ġwall</w>": 2503,
      "era</w>": 2504,
      "addy</w>": 2505,
      "wl</w>": 2506,
      "ĠRom": 2507,
      "Ġary</w>": 2508,
      "Ġnot": 2509,
      "bor</w>": 2510,
      "ste</w>": 2511,
      "Ġrespon": 2512,
      "ĠChrist</w>": 2513,
      "Ġplant</w>": 2514,
      "ĠSec": 2515,
      "key</w>": 2516,
      "ĠSm": 2517,
      "Ġperi": 2518,
      "Ġform": 2519,
      "Ġcan": 2520,
      "AN": 2521,
      "ĠPol": 2522,
      "Ġcannot</w>": 2523,
      "atural</w>": 2524,
      "Ġgland</w>": 2525,
      "unny</w>": 2526,
      "ĠLord</w>": 2527,
      "Ġali": 2528,
      "ĠHol": 2529,
      "hm</w>": 2530,
      "ara</w>": 2531,
      "duct</w>": 2532,
      "raid</w>": 2533,
      "Ġthrow</w>": 2534,
      "Ġbeat</w>": 2535,
      "ho": 2536,
      "ĠLondon</w>": 2537,
      "ĠChrist": 2538,
      "Ġspe": 2539,
      "Ġdoctor</w>": 2540,
      "Ġsign": 2541,
      "ific</w>": 2542,
      "ttle</w>": 2543,
      "Ġec": 2544,
      "Ġcolor</w>": 2545,
      "oto</w>": 2546,
      "Ġtro": 2547,
      "Ġstone</w>": 2548,
      "Ġamong</w>": 2549,
      "Ġconn": 2550,
      "zy</w>": 2551,
      "Ġiss": 2552,
      "Ġfla": 2553,
      "Ġdem": 2554,
      "Ġbar": 2555,
      "rote</w>": 2556,
      "Ġblue</w>": 2557,
      "ya</w>": 2558,
      "bt</w>": 2559,
      "OR": 2560,
      "Ġent": 2561,
      "yle</w>": 2562,
      "Ġcurrent</w>": 2563,
      "Ġdeep</w>": 2564,
      "Ġpract": 2565,
      "Ġbear</w>": 2566,
      "Ġfly</w>": 2567,
      "lo</w>": 2568,
      "oci": 2569,
      "Ġtend</w>": 2570,
      "Ġvideo</w>": 2571,
      "ecial</w>": 2572,
      "Ġspeci": 2573,
      "Ġwrote</w>": 2574,
      "Ġsumm": 2575,
      "ĠDr</w>": 2576,
      "ĠCap": 2577,
      "ĠAl</w>": 2578,
      "Ġeveryone</w>": 2579,
      "Ġcold</w>": 2580,
      "ĠAmerica</w>": 2581,
      "Ġrole</w>": 2582,
      "Ġwin</w>": 2583,
      "Ġfr": 2584,
      "Ġbirth</w>": 2585,
      "Ġdiffic": 2586,
      "ag</w>": 2587,
      "Ġequal</w>": 2588,
      "Ġafraid</w>": 2589,
      "ĠSorry</w>": 2590,
      "Ġabs": 2591,
      "itive</w>": 2592,
      "ource</w>": 2593,
      "ĠSir</w>": 2594,
      "Ġhe": 2595,
      "pic</w>": 2596,
      "Ġtire</w>": 2597,
      "Ġpost</w>": 2598,
      "Ġgraph</w>": 2599,
      "ov": 2600,
      "ĠTe": 2601,
      "Ġcre": 2602,
      "Ġhy": 2603,
      "ĠÎ": 2604,
      "Ġware</w>": 2605,
      "Ġwide</w>": 2606,
      "Ġserved</w>": 2607,
      "ĠWH": 2608,
      "liam</w>": 2609,
      "kin</w>": 2610,
      "Ġrunning</w>": 2611,
      "Ġfill</w>": 2612,
      "Ġlonger</w>": 2613,
      "Ġrai": 2614,
      "ĠList</w>": 2615,
      "ĠAn</w>": 2616,
      "Ġtomorrow</w>": 2617,
      "Ġeduc": 2618,
      "Ġnet</w>": 2619,
      "Ġstri": 2620,
      "Ġspi": 2621,
      "Ġlogy</w>": 2622,
      "enter</w>": 2623,
      "ĠAg": 2624,
      "Ġfun</w>": 2625,
      "por": 2626,
      "Ġinter": 2627,
      "Ġmouth</w>": 2628,
      "Ġring</w>": 2629,
      "Ġmag": 2630,
      "Ġtruth</w>": 2631,
      "Ġprison</w>": 2632,
      "ly": 2633,
      "Ġchair</w>": 2634,
      "Ġcy": 2635,
      "Ġriver</w>": 2636,
      "ĠAny</w>": 2637,
      "Ġsell</w>": 2638,
      "Ġdress</w>": 2639,
      "ali": 2640,
      "Ġrelation</w>": 2641,
      "Ġtir</w>": 2642,
      "Ġsoft</w>": 2643,
      "ish": 2644,
      "eant</w>": 2645,
      "ĠTO</w>": 2646,
      "ĠAng": 2647,
      "Ġtechn": 2648,
      "Ġmem": 2649,
      "Ġwindow</w>": 2650,
      "Ġagree</w>": 2651,
      "olog": 2652,
      "ĠMc": 2653,
      "Ġheal</w>": 2654,
      "Ġstreet</w>": 2655,
      "etic</w>": 2656,
      "spital</w>": 2657,
      "get</w>": 2658,
      "Ġshit</w>": 2659,
      "ington</w>": 2660,
      "Ġkey</w>": 2661,
      "Ġcollect</w>": 2662,
      "Ġgreen</w>": 2663,
      "body</w>": 2664,
      "Ġdistrict</w>": 2665,
      "icle</w>": 2666,
      "Ġbra": 2667,
      "ĠWill</w>": 2668,
      "atter</w>": 2669,
      "pped</w>": 2670,
      "Ġcost</w>": 2671,
      "Ġconv": 2672,
      "ĠSchool</w>": 2673,
      "bb": 2674,
      "Ġclean</w>": 2675,
      "Ġfail</w>": 2676,
      "oo</w>": 2677,
      "Ġpublish</w>": 2678,
      "ano</w>": 2679,
      "Ġconnect</w>": 2680,
      "emy</w>": 2681,
      "Ġfell</w>": 2682,
      "dual</w>": 2683,
      "di</w>": 2684,
      "Ġsource</w>": 2685,
      "Ġstat": 2686,
      "dence</w>": 2687,
      "ĠGive</w>": 2688,
      "ada</w>": 2689,
      "Ġcross</w>": 2690,
      "Ġsing</w>": 2691,
      "lic": 2692,
      "ok</w>": 2693,
      "stic</w>": 2694,
      "to</w>": 2695,
      "Ġled</w>": 2696,
      "Ġburn</w>": 2697,
      "Ġenter</w>": 2698,
      "ĠSy": 2699,
      "ĠWest</w>": 2700,
      "Ġreceived</w>": 2701,
      "Ġrule</w>": 2702,
      "Ġaccept</w>": 2703,
      "Ġlady</w>": 2704,
      "ĠStop</w>": 2705,
      "Ġmast</w>": 2706,
      "Ġnon</w>": 2707,
      "Ġsuppos</w>": 2708,
      "ĠEven</w>": 2709,
      "Ġluck</w>": 2710,
      "Ġrespect</w>": 2711,
      "ient</w>": 2712,
      "Ġtonight</w>": 2713,
      "Ġsch": 2714,
      "Ġfut": 2715,
      "edi": 2716,
      "Ġmile</w>": 2717,
      "ĠX": 2718,
      "Ġperiod</w>": 2719,
      "oose</w>": 2720,
      "vy</w>": 2721,
      "Ġize</w>": 2722,
      "Ġbus</w>": 2723,
      "Ġnatural</w>": 2724,
      "Ġhot</w>": 2725,
      "Ġmurder</w>": 2726,
      "Ġnote</w>": 2727,
      "oul</w>": 2728,
      "ĠPeople</w>": 2729,
      "Ġwind</w>": 2730,
      "oop</w>": 2731,
      "ĠII</w>": 2732,
      "Ġplac</w>": 2733,
      "ĠPu": 2734,
      "Ġtrack</w>": 2735,
      "Ġeer</w>": 2736,
      "ĠAfric": 2737,
      "Ġcast</w>": 2738,
      "ĠFirst</w>": 2739,
      "roy</w>": 2740,
      "Ġkept</w>": 2741,
      "ael</w>": 2742,
      "Ġlie</w>": 2743,
      "Ġid": 2744,
      "Ġarri": 2745,
      "itary</w>": 2746,
      "Ġrep": 2747,
      "Ġcourt</w>": 2748,
      "Ġcogn": 2749,
      "Ġspecies</w>": 2750,
      "Ġserious</w>": 2751,
      "ĠJack</w>": 2752,
      "ĠAw": 2753,
      "Ġtrust</w>": 2754,
      "ani": 2755,
      "ott</w>": 2756,
      "ating</w>": 2757,
      "Ġnine</w>": 2758,
      "Ġdate</w>": 2759,
      "uter</w>": 2760,
      "aight</w>": 2761,
      "ki</w>": 2762,
      "Ġfear</w>": 2763,
      "ĠHouse</w>": 2764,
      "Ġsudden</w>": 2765,
      "do</w>": 2766,
      "Ġperfect</w>": 2767,
      "ĠWilliam</w>": 2768,
      "ta</w>": 2769,
      "Ġdad</w>": 2770,
      "AT": 2771,
      "Ġpro</w>": 2772,
      "ggest</w>": 2773,
      "Ġobject</w>": 2774,
      "umb": 2775,
      "ĠSt</w>": 2776,
      "mm</w>": 2777,
      "ĠCor": 2778,
      "Ġpound</w>": 2779,
      "ession</w>": 2780,
      "Ġsurpri": 2781,
      "ourn": 2782,
      "Ġexplain</w>": 2783,
      "Ġindi": 2784,
      "ĠVi": 2785,
      "Ġstudy</w>": 2786,
      "Ġgl": 2787,
      "cident</w>": 2788,
      "Ġdifficult</w>": 2789,
      "Ġslow</w>": 2790,
      "Ġran</w>": 2791,
      "Ġcook</w>": 2792,
      "Ġsuggest</w>": 2793,
      "Ġpea": 2794,
      "Ġvalue</w>": 2795,
      "Ġpaint</w>": 2796,
      "Ġspoke</w>": 2797,
      "Ġboat</w>": 2798,
      "Ġnorm</w>": 2799,
      "ĠSer": 2800,
      "Ġabove</w>": 2801,
      "bin</w>": 2802,
      "ĠCH": 2803,
      "ĠMhm</w>": 2804,
      "elc": 2805,
      "Ġradi": 2806,
      "Ġem</w>": 2807,
      "ea</w>": 2808,
      "mer</w>": 2809,
      "Ġdis": 2810,
      "Ġpriv": 2811,
      "Ġmarket</w>": 2812,
      "iet</w>": 2813,
      "Ġdou": 2814,
      "acy</w>": 2815,
      "ysic</w>": 2816,
      "Ġofficial</w>": 2817,
      "ĠGeorge</w>": 2818,
      "rit</w>": 2819,
      "ĠAle": 2820,
      "Ġstage</w>": 2821,
      "Ġbank</w>": 2822,
      "Ġcrit": 2823,
      "Ġfuture</w>": 2824,
      "Ġprogram</w>": 2825,
      "bit</w>": 2826,
      "Ġdeed</w>": 2827,
      "ĠMan</w>": 2828,
      "ĠFor": 2829,
      "Ġdue</w>": 2830,
      "Ġearth</w>": 2831,
      "ume</w>": 2832,
      "ission</w>": 2833,
      "ĠBe": 2834,
      "Ġsitu": 2835,
      "ĠCou": 2836,
      "Ġx</w>": 2837,
      "aul</w>": 2838,
      "Ġsal": 2839,
      "ĠAss": 2840,
      "Ġdecid</w>": 2841,
      "itting</w>": 2842,
      "ans": 2843,
      "Ġprocess</w>": 2844,
      "Ġshoot</w>": 2845,
      "Ġard</w>": 2846,
      "ĠLo": 2847,
      "oint</w>": 2848,
      "ille</w>": 2849,
      "Ġleg</w>": 2850,
      "Ġvill</w>": 2851,
      "Ġdru": 2852,
      "Ġdisc": 2853,
      "Ġpresident</w>": 2854,
      "ĠLit": 2855,
      "Ġwest</w>": 2856,
      "Ġmedi": 2857,
      "ĠNoth</w>": 2858,
      "Ġcarry</w>": 2859,
      "Ġmedic": 2860,
      "ination</w>": 2861,
      "arth</w>": 2862,
      "Ġble": 2863,
      "Ġain</w>": 2864,
      "Ġrace</w>": 2865,
      "EN": 2866,
      "ĠLeague</w>": 2867,
      "Ġsecret</w>": 2868,
      "ergy</w>": 2869,
      "ĠEr</w>": 2870,
      "loy</w>": 2871,
      "Ġpopular</w>": 2872,
      "Ġang": 2873,
      "ret": 2874,
      "Ġfix</w>": 2875,
      "ford</w>": 2876,
      "ĠHigh</w>": 2877,
      "Ġcondition</w>": 2878,
      "sist</w>": 2879,
      "Ġsocial</w>": 2880,
      "ron": 2881,
      "Ġstraight</w>": 2882,
      "Ġtitle</w>": 2883,
      "Ġfle": 2884,
      "Ġimag": 2885,
      "ian</w>": 2886,
      "Ġsla": 2887,
      "ĠPart": 2888,
      "Ġbase</w>": 2889,
      "Ġdrive</w>": 2890,
      "amb": 2891,
      "Ġsuff": 2892,
      "Ġchurch</w>": 2893,
      "ĠVery</w>": 2894,
      "Ġnec": 2895,
      "ie": 2896,
      "Ġcat</w>": 2897,
      "oh</w>": 2898,
      "Ġbye</w>": 2899,
      "att": 2900,
      "Ġexperience</w>": 2901,
      "vious</w>": 2902,
      "Ġsave</w>": 2903,
      "ĠE</w>": 2904,
      "ĠP</w>": 2905,
      "Ġappoint</w>": 2906,
      "oma</w>": 2907,
      "Ġisland</w>": 2908,
      "ech</w>": 2909,
      "ablish</w>": 2910,
      "val</w>": 2911,
      "Ġdisp": 2912,
      "ĠComp": 2913,
      "achine</w>": 2914,
      "riage</w>": 2915,
      "oon</w>": 2916,
      "Ġgener": 2917,
      "teen</w>": 2918,
      "Ġgentle</w>": 2919,
      "Ġfloor</w>": 2920,
      "Ġaren</w>": 2921,
      "ĠExc": 2922,
      "ON": 2923,
      "Ġwise</w>": 2924,
      "Ġdepart</w>": 2925,
      "Ġprofession</w>": 2926,
      "Ġcry</w>": 2927,
      "ĠWhich</w>": 2928,
      "IN": 2929,
      "ĠSch": 2930,
      "Ġstore</w>": 2931,
      "Ġcharge</w>": 2932,
      "ol</w>": 2933,
      "oom</w>": 2934,
      "ania</w>": 2935,
      "special</w>": 2936,
      "ĠBr": 2937,
      "Ġstick</w>": 2938,
      "ager</w>": 2939,
      "Ġissue</w>": 2940,
      "aw</w>": 2941,
      "ĠG</w>": 2942,
      "Ġworth</w>": 2943,
      "Ġnecess": 2944,
      "ĠGeneral</w>": 2945,
      "aw": 2946,
      "ĠJes": 2947,
      "Ġfunction</w>": 2948,
      "Ġproduc</w>": 2949,
      "ilar</w>": 2950,
      "br": 2951,
      "Ġproject</w>": 2952,
      "Ġcirc": 2953,
      "Ġhood</w>": 2954,
      "Ġestablish</w>": 2955,
      "ĠDavid</w>": 2956,
      "ĠWould</w>": 2957,
      "phy</w>": 2958,
      "Ġcard</w>": 2959,
      "Ġexcept</w>": 2960,
      "cer</w>": 2961,
      "imate</w>": 2962,
      "Ġlog": 2963,
      "Ġneg": 2964,
      "ĠR</w>": 2965,
      "ae</w>": 2966,
      "Ġfirm</w>": 2967,
      "Ġcho": 2968,
      "Ġbeg": 2969,
      "Ġmer": 2970,
      "dier</w>": 2971,
      "Ġmiddle</w>": 2972,
      "ST</w>": 2973,
      "ciety</w>": 2974,
      "ific": 2975,
      "par": 2976,
      "Ġprop": 2977,
      "Ġunit</w>": 2978,
      "Ġhole</w>": 2979,
      "elcome</w>": 2980,
      "Ġcri</w>": 2981,
      "Ġgri": 2982,
      "Ġlock</w>": 2983,
      "Ġcorn</w>": 2984,
      "Ġbig": 2985,
      "Ġcontain</w>": 2986,
      "ĠSure</w>": 2987,
      "ĠMary</w>": 2988,
      "Ġroll</w>": 2989,
      "Ġle</w>": 2990,
      "ĠAir</w>": 2991,
      "ĠMor": 2992,
      "Ġ&</w>": 2993,
      "of</w>": 2994,
      "ĠIndian</w>": 2995,
      "ĠOur</w>": 2996,
      "Ġhospital</w>": 2997,
      "ĠJame</w>": 2998,
      "Ġfurther</w>": 2999,
      "uss</w>": 3000,
      "ĠHel": 3001,
      "Ġphysic</w>": 3002,
      "ash</w>": 3003,
      "serv": 3004,
      "Ġcell</w>": 3005,
      "ĠMu": 3006,
      "ĠPark</w>": 3007,
      "Ġexpress</w>": 3008,
      "stit": 3009,
      "reed</w>": 3010,
      "Ġserve</w>": 3011,
      "Ġcatch</w>": 3012,
      "Ġsick</w>": 3013,
      "Ġele": 3014,
      "olute</w>": 3015,
      "Ġmention</w>": 3016,
      "Ġfort": 3017,
      "Ġgod</w>": 3018,
      "Ġcapital</w>": 3019,
      "Ġweigh</w>": 3020,
      "Ġsituation</w>": 3021,
      "Ġcool</w>": 3022,
      "Ġvict": 3023,
      "Ġum</w>": 3024,
      "ab</w>": 3025,
      "Ġemploy</w>": 3026,
      "OM": 3027,
      "ee": 3028,
      "ĠÃ¡</w>": 3029,
      "dio</w>": 3030,
      "ĠAND</w>": 3031,
      "Ġhang</w>": 3032,
      "erial</w>": 3033,
      "Ġdinner</w>": 3034,
      "ĠSal": 3035,
      "Ġart": 3036,
      "Ġlose</w>": 3037,
      "EN</w>": 3038,
      "oph": 3039,
      "rity</w>": 3040,
      "Ġauthor</w>": 3041,
      "Ġconcern</w>": 3042,
      "Ġfarm</w>": 3043,
      "ocr": 3044,
      "su": 3045,
      "Ġfunny</w>": 3046,
      "Ġmess": 3047,
      "Ġmatch</w>": 3048,
      "ĠEast</w>": 3049,
      "Ġcritic</w>": 3050,
      "ĠDuring</w>": 3051,
      "Ġsuit</w>": 3052,
      "Ġevi": 3053,
      "Ġclaim</w>": 3054,
      "Ġpush</w>": 3055,
      "ĠRiver</w>": 3056,
      "ĠAward</w>": 3057,
      "Ġsl": 3058,
      "Ġrefer</w>": 3059,
      "Ġsusp": 3060,
      "Ġfamou</w>": 3061,
      "Ġaccount</w>": 3062,
      "ĠSi": 3063,
      "ĠBur": 3064,
      "ĠIT</w>": 3065,
      "ĠPaul</w>": 3066,
      "Ġfit</w>": 3067,
      "inct</w>": 3068,
      "Ġmachine</w>": 3069,
      "ounc</w>": 3070,
      "ĠOF</w>": 3071,
      "Ġgiving</w>": 3072,
      "Ġcomputer</w>": 3073,
      "Ġrain</w>": 3074,
      "ĠL</w>": 3075,
      "Ġsubject</w>": 3076,
      "Ġleav</w>": 3077,
      "Ġphoto</w>": 3078,
      "Ġep": 3079,
      "Ġquiet</w>": 3080,
      "estern</w>": 3081,
      "Ġcrazy</w>": 3082,
      "rible</w>": 3083,
      "Ġsat": 3084,
      "ĠMad": 3085,
      "vidual</w>": 3086,
      "Ġsuper</w>": 3087,
      "ĠRich": 3088,
      "Ġsat</w>": 3089,
      "ĠCla": 3090,
      "fort</w>": 3091,
      "Ġbeginn</w>": 3092,
      "Ġcos</w>": 3093,
      "Ġbroad</w>": 3094,
      "sia</w>": 3095,
      "cket</w>": 3096,
      "Ġwhom</w>": 3097,
      "Ġalt</w>": 3098,
      "OW</w>": 3099,
      "ip": 3100,
      "Ġdoubt</w>": 3101,
      "olution</w>": 3102,
      "Ġrelig": 3103,
      "stle</w>": 3104,
      "ĠHon": 3105,
      "Ġprin": 3106,
      "ĠDad</w>": 3107,
      "ĠCent": 3108,
      "Ġbag</w>": 3109,
      "Ġglad</w>": 3110,
      "empt</w>": 3111,
      "ald</w>": 3112,
      "ĠMichael</w>": 3113,
      "orie</w>": 3114,
      "Ġass</w>": 3115,
      "Ġcoun": 3116,
      "ension</w>": 3117,
      "ĠUm</w>": 3118,
      "Ġgoal</w>": 3119,
      "Ġpain</w>": 3120,
      "Ġbegin</w>": 3121,
      "Ġdr": 3122,
      "Ġfem": 3123,
      "Ġmountain</w>": 3124,
      "Ġexist</w>": 3125,
      "Ġeducation</w>": 3126,
      "ston</w>": 3127,
      "Ġdol": 3128,
      "Ġsite</w>": 3129,
      "Ġsitting</w>": 3130,
      "Ġintro": 3131,
      "duc</w>": 3132,
      "az</w>": 3133,
      "ellow</w>": 3134,
      "ivil</w>": 3135,
      "Ġdel": 3136,
      "Ġsepar": 3137,
      "la</w>": 3138,
      "vide</w>": 3139,
      "Ġmodel</w>": 3140,
      "Ġability</w>": 3141,
      "ĠLou": 3142,
      "liforn": 3143,
      "un</w>": 3144,
      "Ġspend</w>": 3145,
      "Ġstyle</w>": 3146,
      "ĠEver</w>": 3147,
      "Ġcaus</w>": 3148,
      "ique</w>": 3149,
      "ĠBea": 3150,
      "Ġcommand</w>": 3151,
      "reme</w>": 3152,
      "ensive</w>": 3153,
      "Ġstair</w>": 3154,
      "Ġfore": 3155,
      "lier</w>": 3156,
      "Ġdestroy</w>": 3157,
      "lifornia</w>": 3158,
      "ĠSim": 3159,
      "Ġbrain</w>": 3160,
      "bur": 3161,
      "Ġlocated</w>": 3162,
      "zz": 3163,
      "Ġmot": 3164,
      "Ġcommunity</w>": 3165,
      "Ġshop</w>": 3166,
      "ĠHist": 3167,
      "OR</w>": 3168,
      "ulture</w>": 3169,
      "ĠGermany</w>": 3170,
      "Ġwhose</w>": 3171,
      "ass": 3172,
      "Ġhat</w>": 3173,
      "ĠPut</w>": 3174,
      "ĠFri": 3175,
      "reet</w>": 3176,
      "Ġload</w>": 3177,
      "ĠCal": 3178,
      "Ġins": 3179,
      "Ġjump</w>": 3180,
      "Ġindividual</w>": 3181,
      "Ġbor": 3182,
      "ĠCalifornia</w>": 3183,
      "ĠGovern</w>": 3184,
      "Ġcountrie</w>": 3185,
      "ĠED</w>": 3186,
      "Ġclim": 3187,
      "Ġfac": 3188,
      "ĠDoe</w>": 3189,
      "Ġsimilar</w>": 3190,
      "ĠIndia</w>": 3191,
      "Ġshi": 3192,
      "Ġsight</w>": 3193,
      "anger</w>": 3194,
      "ible</w>": 3195,
      "ĠRoman</w>": 3196,
      "ĠJ</w>": 3197,
      "Ġpark</w>": 3198,
      "Ġdeg": 3199,
      "Ġviol": 3200,
      "ĠCoun": 3201,
      "rang</w>": 3202,
      "ĠHuh</w>": 3203,
      "ĠFre": 3204,
      "ung</w>": 3205,
      "erie</w>": 3206,
      "ein</w>": 3207,
      "ĠAc": 3208,
      "ĠMat": 3209,
      "let</w>": 3210,
      "ĠChampion</w>": 3211,
      "Ġnin": 3212,
      "IT": 3213,
      "oa</w>": 3214,
      "Ġhate</w>": 3215,
      "Ġneigh": 3216,
      "LE</w>": 3217,
      "od": 3218,
      "pid</w>": 3219,
      "Ġfellow</w>": 3220,
      "Ġamount</w>": 3221,
      "Ġaut": 3222,
      "Ġrich</w>": 3223,
      "Ġsize</w>": 3224,
      "ĠKn": 3225,
      "Ġmoving</w>": 3226,
      "gress</w>": 3227,
      "AY</w>": 3228,
      "ceed</w>": 3229,
      "Ġsoldier</w>": 3230,
      "Ġcontinue</w>": 3231,
      "Ġsuppose</w>": 3232,
      "ĠHe": 3233,
      "Ġcomfort</w>": 3234,
      "cus</w>": 3235,
      "Ġdance</w>": 3236,
      "Ġversion</w>": 3237,
      "Ġdefin": 3238,
      "II</w>": 3239,
      "Ġactiv": 3240,
      "Ġenergy</w>": 3241,
      "ĠFin": 3242,
      "Ġcontinu</w>": 3243,
      "Ġresponsi": 3244,
      "ĠHen": 3245,
      "cious</w>": 3246,
      "Ġblock</w>": 3247,
      "Ġmeant</w>": 3248,
      "Ġwild</w>": 3249,
      "Ġespecial</w>": 3250,
      "asion</w>": 3251,
      "oe</w>": 3252,
      "Ġpage</w>": 3253,
      "Ġsimple</w>": 3254,
      "Ġpair</w>": 3255,
      "Ġalive</w>": 3256,
      "ĠParty</w>": 3257,
      "Ġcru": 3258,
      "Ġshare</w>": 3259,
      "ĠStu": 3260,
      "ack": 3261,
      "Ġfli": 3262,
      "emic</w>": 3263,
      "ĠMost</w>": 3264,
      "ĠMart": 3265,
      "Ġcompet": 3266,
      "Ġclos": 3267,
      "Ġcaught</w>": 3268,
      "ĠBer": 3269,
      "ĠTV</w>": 3270,
      "Ġwarm</w>": 3271,
      "ĠF</w>": 3272,
      "Ġhill</w>": 3273,
      "rate</w>": 3274,
      "ĠEmp": 3275,
      "Ġplane</w>": 3276,
      "ĠÐ": 3277,
      "Ġmid</w>": 3278,
      "ĠSince</w>": 3279,
      "Ġyard</w>": 3280,
      "ilo</w>": 3281,
      "Ġlarg</w>": 3282,
      "Ġate</w>": 3283,
      "Ġdecision</w>": 3284,
      "ĠPal": 3285,
      "enge</w>": 3286,
      "ĠOther</w>": 3287,
      "liver</w>": 3288,
      "Ġben": 3289,
      "ĠDem": 3290,
      "ĠAt": 3291,
      "ĠBel": 3292,
      "ding</w>": 3293,
      "arl</w>": 3294,
      "ĠBlack</w>": 3295,
      "ĠH</w>": 3296,
      "Ġsummer</w>": 3297,
      "ĠJesus</w>": 3298,
      "cent</w>": 3299,
      "Ġproper</w>": 3300,
      "Ġpaid</w>": 3301,
      "ĠMal": 3302,
      "ĠRobert</w>": 3303,
      "ĠCaptain</w>": 3304,
      "ĠMe</w>": 3305,
      "Ġease</w>": 3306,
      "ĠMany</w>": 3307,
      "Ġpeace</w>": 3308,
      "ĠIts</w>": 3309,
      "gon</w>": 3310,
      "Ġstrange</w>": 3311,
      "Ġmy": 3312,
      "ĠTime</w>": 3313,
      "Ġbattle</w>": 3314,
      "Ġmom</w>": 3315,
      "Ġdegree</w>": 3316,
      "ino</w>": 3317,
      "Ġpack</w>": 3318,
      "Ġcop": 3319,
      "Ġmaterial</w>": 3320,
      "Ġapart</w>": 3321,
      "Ġnoon</w>": 3322,
      "Ġquart</w>": 3323,
      "Ġmor": 3324,
      "ediate</w>": 3325,
      "uty</w>": 3326,
      "ĠTom</w>": 3327,
      "Ġcat": 3328,
      "Ġbou": 3329,
      "cho</w>": 3330,
      "cient</w>": 3331,
      "ĠIsland</w>": 3332,
      "Ġstopped</w>": 3333,
      "ĠApp": 3334,
      "ĠÃŃ</w>": 3335,
      "Ġhar": 3336,
      "ĠDist": 3337,
      "Ġhoney</w>": 3338,
      "verse</w>": 3339,
      "Ġinflu": 3340,
      "Ġmilitary</w>": 3341,
      "Ġcollege</w>": 3342,
      "Ġopt</w>": 3343,
      "Ġmessage</w>": 3344,
      "Ġblow</w>": 3345,
      "Ġice</w>": 3346,
      "rupt</w>": 3347,
      "ĠNor": 3348,
      "onom": 3349,
      "aly": 3350,
      "CK</w>": 3351,
      "Ġfact": 3352,
      "ĠThree</w>": 3353,
      "Ġconstruct</w>": 3354,
      "go</w>": 3355,
      "ria</w>": 3356,
      "ĠAha</w>": 3357,
      "Ġprove</w>": 3358,
      "ĠFi": 3359,
      "SE</w>": 3360,
      "Ġkiss</w>": 3361,
      "ago</w>": 3362,
      "Ġvarious</w>": 3363,
      "ico</w>": 3364,
      "ĠCup</w>": 3365,
      "Ġpal": 3366,
      "Ġfool</w>": 3367,
      "ura</w>": 3368,
      "Ġdiscuss</w>": 3369,
      "Ġbasic</w>": 3370,
      "Ġmodern</w>": 3371,
      "tt</w>": 3372,
      "Ġbi": 3373,
      "ĠLittle</w>": 3374,
      "cture</w>": 3375,
      "Ġst</w>": 3376,
      "Ġtradition</w>": 3377,
      "Ġalt": 3378,
      "ĠWas</w>": 3379,
      "ĠWal": 3380,
      "ĠKo": 3381,
      "Ġhunt</w>": 3382,
      "Ġpurp": 3383,
      "tie</w>": 3384,
      "ĠSar": 3385,
      "unicip": 3386,
      "ĠK</w>": 3387,
      "Ġcamp</w>": 3388,
      "ĠÃ¶</w>": 3389,
      "Ġsold</w>": 3390,
      "Ġvolved</w>": 3391,
      "Ġsoul</w>": 3392,
      "Ġfing</w>": 3393,
      "Ġprint</w>": 3394,
      "ĠOld</w>": 3395,
      "Ġdrop</w>": 3396,
      "ĠWow</w>": 3397,
      "Ġrail</w>": 3398,
      "eam</w>": 3399,
      "ĠCath": 3400,
      "Ġaffect</w>": 3401,
      "Ġchoice</w>": 3402,
      "eo</w>": 3403,
      "Ġspent</w>": 3404,
      "Ġpromise</w>": 3405,
      "Ġprivate</w>": 3406,
      "ĠVal": 3407,
      "ĠReg": 3408,
      "Ġeast</w>": 3409,
      "Ġgro": 3410,
      "ĠBill</w>": 3411,
      "Ġpatient</w>": 3412,
      "Ġordin": 3413,
      "ef": 3414,
      "Ġinn": 3415,
      "Ġdeser": 3416,
      "ers": 3417,
      "Ġextra</w>": 3418,
      "ĠPat": 3419,
      "ĠSay</w>": 3420,
      "Ġattempt</w>": 3421,
      "Ġbought</w>": 3422,
      "ĠSen": 3423,
      "Ġenv": 3424,
      "ĠArm</w>": 3425,
      "Ġcam": 3426,
      "Ġlov</w>": 3427,
      "ani</w>": 3428,
      "Ġcenter</w>": 3429,
      "omb</w>": 3430,
      "Ġlimit</w>": 3431,
      "ny</w>": 3432,
      "dict</w>": 3433,
      "VE</w>": 3434,
      "Ġdrug</w>": 3435,
      "ĠMinister</w>": 3436,
      "Ġdesp": 3437,
      "ĠN</w>": 3438,
      "Ġguard</w>": 3439,
      "ĠPi": 3440,
      "Ġadm": 3441,
      "ĠAustra": 3442,
      "ĠUS</w>": 3443,
      "quent</w>": 3444,
      "Ġegg</w>": 3445,
      "Ġobvious</w>": 3446,
      "Ġimmediate</w>": 3447,
      "ĠEarth</w>": 3448,
      "Ġnature</w>": 3449,
      "ĠFrank</w>": 3450,
      "Ġfeature</w>": 3451,
      "Ġcanc": 3452,
      "Ġaddition</w>": 3453,
      "Ġselect</w>": 3454,
      "Ġclock</w>": 3455,
      "otion</w>": 3456,
      "ĠExcuse</w>": 3457,
      "ĠThose</w>": 3458,
      "owle": 3459,
      "err</w>": 3460,
      "Ġfort</w>": 3461,
      "Ġpurpose</w>": 3462,
      "ortun": 3463,
      "Ġsport</w>": 3464,
      "gar</w>": 3465,
      "itude</w>": 3466,
      "TER</w>": 3467,
      "bility</w>": 3468,
      "Ġbal": 3469,
      "Ġrecent</w>": 3470,
      "istic</w>": 3471,
      "Ġtour</w>": 3472,
      "ĠLau": 3473,
      "Ġbroke</w>": 3474,
      "rey</w>": 3475,
      "Ġteen</w>": 3476,
      "Ġgraphy</w>": 3477,
      "stom</w>": 3478,
      "Ġclothe</w>": 3479,
      "Ġcamp": 3480,
      "Ġgrew</w>": 3481,
      "Ġdata</w>": 3482,
      "Ġcompan": 3483,
      "ption</w>": 3484,
      "Ġshut</w>": 3485,
      "we</w>": 3486,
      "ĠÃ¼</w>": 3487,
      "Ġforest</w>": 3488,
      "enc</w>": 3489,
      "Ġscape</w>": 3490,
      "Ġbreath</w>": 3491,
      "RO": 3492,
      "ĠWom": 3493,
      "Ġcrime</w>": 3494,
      "Ġglo": 3495,
      "ĠEm": 3496,
      "ĠST": 3497,
      "Ġprice</w>": 3498,
      "zer</w>": 3499,
      "Ġcoff": 3500,
      "xe</w>": 3501,
      "Ġlease</w>": 3502,
      "ĠFran": 3503,
      "Ġbla": 3504,
      "Ġscene</w>": 3505,
      "Ġfif": 3506,
      "Ġclos</w>": 3507,
      "li</w>": 3508,
      "ena</w>": 3509,
      "ĠWhite</w>": 3510,
      "IG": 3511,
      "Ġregular</w>": 3512,
      "ĠChurch</w>": 3513,
      "ĠTur": 3514,
      "Ġheavy</w>": 3515,
      "ĠRed</w>": 3516,
      "ĠKh": 3517,
      "Ġinh": 3518,
      "eh": 3519,
      "amm": 3520,
      "Ġscience</w>": 3521,
      "co</w>": 3522,
      "Ġcon</w>": 3523,
      "Ġpot": 3524,
      "ica</w>": 3525,
      "rif": 3526,
      "up": 3527,
      "urity</w>": 3528,
      "Ġbr</w>": 3529,
      "Ġmate</w>": 3530,
      "Ġcreate</w>": 3531,
      "Ġvious</w>": 3532,
      "Ġmission</w>": 3533,
      "usion</w>": 3534,
      "Ġplann</w>": 3535,
      "iron</w>": 3536,
      "Ġpen": 3537,
      "eum</w>": 3538,
      "ĠMom</w>": 3539,
      "ified</w>": 3540,
      "Ġanti</w>": 3541,
      "Ġstructure</w>": 3542,
      "Ġdollar</w>": 3543,
      "ĠFather</w>": 3544,
      "Ġradio</w>": 3545,
      "aj": 3546,
      "rat": 3547,
      "Ġrais</w>": 3548,
      "ĠOver</w>": 3549,
      "ttom</w>": 3550,
      "ensus</w>": 3551,
      "Ġtravel</w>": 3552,
      "Ġrate</w>": 3553,
      "Ġattend</w>": 3554,
      "tte</w>": 3555,
      "Ġeng": 3556,
      "ĠCouncil</w>": 3557,
      "ca</w>": 3558,
      "Ġmeter</w>": 3559,
      "ĠOp": 3560,
      "ham</w>": 3561,
      "anner</w>": 3562,
      "Ġuni</w>": 3563,
      "sion</w>": 3564,
      "Ġhost</w>": 3565,
      "Ġmeth": 3566,
      "Ġknowle": 3567,
      "ior</w>": 3568,
      "ray</w>": 3569,
      "ĠPari</w>": 3570,
      "man</w>": 3571,
      "ĠMex": 3572,
      "Ġcal": 3573,
      "Ġsent": 3574,
      "Ġlik</w>": 3575,
      "Ġshoe</w>": 3576,
      "Ġfemale</w>": 3577,
      "Ġspread</w>": 3578,
      "Ġably</w>": 3579,
      "Ġstupid</w>": 3580,
      "Ġpsy": 3581,
      "Ġwash</w>": 3582,
      "Ġbroken</w>": 3583,
      "Ġsimp</w>": 3584,
      "Ġevidence</w>": 3585,
      "ĠChina</w>": 3586,
      "Ġbar</w>": 3587,
      "Ġcontract</w>": 3588,
      "ĠSat": 3589,
      "ĠGrand</w>": 3590,
      "Ġavail</w>": 3591,
      "ĠTHAT</w>": 3592,
      "ĠSa": 3593,
      "Ġspirit</w>": 3594,
      "Ġculture</w>": 3595,
      "itter</w>": 3596,
      "ĠQueen</w>": 3597,
      "Ġmarriage</w>": 3598,
      "aff</w>": 3599,
      "Ġride</w>": 3600,
      "Ġà": 3601,
      "Ġattention</w>": 3602,
      "Ġdram": 3603,
      "Ġconsist</w>": 3604,
      "ĠAustralia</w>": 3605,
      "Ġaccident</w>": 3606,
      "ĠMother</w>": 3607,
      "Ġtea</w>": 3608,
      "ĠMil": 3609,
      "rin": 3610,
      "Ġpray</w>": 3611,
      "ĠHA": 3612,
      "here</w>": 3613,
      "ĠWhile</w>": 3614,
      "ĠStreet</w>": 3615,
      "Ġearn</w>": 3616,
      "Ġabsolute</w>": 3617,
      "Ġnom": 3618,
      "ĠBen": 3619,
      "Ġfift</w>": 3620,
      "Ġchampion</w>": 3621,
      "Ġcoura": 3622,
      "Ġprim": 3623,
      "Ġmanage</w>": 3624,
      "elt</w>": 3625,
      "ociation</w>": 3626,
      "Ġmix</w>": 3627,
      "Ġcup</w>": 3628,
      "ĠAcc": 3629,
      "ET</w>": 3630,
      "dust": 3631,
      "ĠOly": 3632,
      "Ġannounc</w>": 3633,
      "Ġste": 3634,
      "astic</w>": 3635,
      "ancy</w>": 3636,
      "Ġchief</w>": 3637,
      "Ġmommy</w>": 3638,
      "edy</w>": 3639,
      "Ġner": 3640,
      "ĠWe": 3641,
      "Ġprovide</w>": 3642,
      "Ġspot</w>": 3643,
      "Ġscar</w>": 3644,
      "Ġtur": 3645,
      "ĠJe": 3646,
      "ĠSam": 3647,
      "ooth</w>": 3648,
      "Ġwake</w>": 3649,
      "ĠCollege</w>": 3650,
      "anny</w>": 3651,
      "Ġlegal</w>": 3652,
      "ĠClu": 3653,
      "ruit</w>": 3654,
      "ĠGreen</w>": 3655,
      "ĠCro": 3656,
      "ĠVir": 3657,
      "easant</w>": 3658,
      "ĠIN</w>": 3659,
      "Ġarch": 3660,
      "Ġdaddy</w>": 3661,
      "Ġoperation</w>": 3662,
      "ized</w>": 3663,
      "cl": 3664,
      "rial</w>": 3665,
      "ĠCharle</w>": 3666,
      "ĠRichard</w>": 3667,
      "ĠSan</w>": 3668,
      "Ġill</w>": 3669,
      "annel</w>": 3670,
      "Ġfresh</w>": 3671,
      "Ġnobody</w>": 3672,
      "Ġmad</w>": 3673,
      "ĠV</w>": 3674,
      "Ġcraft</w>": 3675,
      "Ġthirt</w>": 3676,
      "Ġtrans</w>": 3677,
      "Ġdefeat</w>": 3678,
      "oid</w>": 3679,
      "Ġdistance</w>": 3680,
      "Ġcel": 3681,
      "lied</w>": 3682,
      "Ġbottom</w>": 3683,
      "ĠGi": 3684,
      "olf</w>": 3685,
      "ĠNever</w>": 3686,
      "ĠPenn": 3687,
      "Ġmarry</w>": 3688,
      "Ġsquare</w>": 3689,
      "Ġinj": 3690,
      "Ġaddre": 3691,
      "Ġtre": 3692,
      "Ġdesi": 3693,
      "Ġpartner</w>": 3694,
      "utch</w>": 3695,
      "Ġthreat</w>": 3696,
      "ĠSun": 3697,
      "ĠArt</w>": 3698,
      "erg": 3699,
      "ĠUnion</w>": 3700,
      "Ġarrest</w>": 3701,
      "mo</w>": 3702,
      "Ġsinger</w>": 3703,
      "rish</w>": 3704,
      "ote</w>": 3705,
      "Ġfault</w>": 3706,
      "bel</w>": 3707,
      "ough": 3708,
      "Ġelectric</w>": 3709,
      "ĠHea": 3710,
      "Ġcommitt</w>": 3711,
      "Ġspeed</w>": 3712,
      "Ġeth</w>": 3713,
      "ari</w>": 3714,
      "Ġvote</w>": 3715,
      "ĠBal": 3716,
      "Ġwing</w>": 3717,
      "Ġbridge</w>": 3718,
      "Ġpractice</w>": 3719,
      "Ġfactor</w>": 3720,
      "Ġbath</w>": 3721,
      "Ġpercent</w>": 3722,
      "Ġhop</w>": 3723,
      "Ġengine</w>": 3724,
      "ĠMore</w>": 3725,
      "ĠBye</w>": 3726,
      "Ġneck</w>": 3727,
      "eon</w>": 3728,
      "Ġnu": 3729,
      "Ġperm": 3730,
      "ĠAbout</w>": 3731,
      "ĠDistrict</w>": 3732,
      "Ġqual</w>": 3733,
      "Ġshire</w>": 3734,
      "Ġnor</w>": 3735,
      "ĠSk": 3736,
      "Ġvir": 3737,
      "ĠHistory</w>": 3738,
      "elve</w>": 3739,
      "Ġrose</w>": 3740,
      "Ġ+</w>": 3741,
      "ĠWash": 3742,
      "ppy</w>": 3743,
      "Ġspect</w>": 3744,
      "estig": 3745,
      "ĠTheir</w>": 3746,
      "eth</w>": 3747,
      "Ġsad</w>": 3748,
      "ĠMed": 3749,
      "Ġweapon</w>": 3750,
      "Ġnose</w>": 3751,
      "ĠJos": 3752,
      "Ġelement</w>": 3753,
      "ĠGot</w>": 3754,
      "OO": 3755,
      "ĠBig</w>": 3756,
      "Ġlift</w>": 3757,
      "ĠBab": 3758,
      "Ġopportun": 3759,
      "ĠChristma</w>": 3760,
      "ĠTra": 3761,
      "Ġexplo": 3762,
      "int": 3763,
      "CE</w>": 3764,
      "ĠEd</w>": 3765,
      "Ġmilk</w>": 3766,
      "ĠDam": 3767,
      "ĠLove</w>": 3768,
      "ĠChin</w>": 3769,
      "Ġfeed</w>": 3770,
      "Ġaccord</w>": 3771,
      "ĠWashington</w>": 3772,
      "ĠHold</w>": 3773,
      "lv": 3774,
      "Ġinit": 3775,
      "eas</w>": 3776,
      "ĠCanada</w>": 3777,
      "Ġsail</w>": 3778,
      "Ġsnow</w>": 3779,
      "Ġnecessary</w>": 3780,
      "ĠPrince</w>": 3781,
      "Ġweak</w>": 3782,
      "Ġheat</w>": 3783,
      "ison</w>": 3784,
      "Ġmunicip": 3785,
      "Ġpolic": 3786,
      "ĠHenry</w>": 3787,
      "sin</w>": 3788,
      "Ġweren</w>": 3789,
      "Ġyer</w>": 3790,
      "Ġrisk</w>": 3791,
      "ĠClub</w>": 3792,
      "Ġbright</w>": 3793,
      "Ġstar": 3794,
      "ĠAnne</w>": 3795,
      "ĠRE</w>": 3796,
      "icro</w>": 3797,
      "ĠOoh</w>": 3798,
      "Ġex</w>": 3799,
      "ĠW</w>": 3800,
      "roll</w>": 3801,
      "erate</w>": 3802,
      "ela</w>": 3803,
      "ize</w>": 3804,
      "Ġnovel</w>": 3805,
      "ĠRuss</w>": 3806,
      "Ġspring</w>": 3807,
      "Ġcarried</w>": 3808,
      "Ġur": 3809,
      "Ġstorm</w>": 3810,
      "ith": 3811,
      "Ġcoach</w>": 3812,
      "ona</w>": 3813,
      "Ġrid</w>": 3814,
      "nie</w>": 3815,
      "vert</w>": 3816,
      "....</w>": 3817,
      "Ġpor": 3818,
      "Ġsection</w>": 3819,
      "ssist</w>": 3820,
      "rine</w>": 3821,
      "Ġma</w>": 3822,
      "Ġaver</w>": 3823,
      "minist": 3824,
      "Ġstorie</w>": 3825,
      "Ġgain</w>": 3826,
      "Ġknock</w>": 3827,
      "Ġgradu": 3828,
      "ga</w>": 3829,
      "Ġthro": 3830,
      "ĠJew</w>": 3831,
      "asi": 3832,
      "Ġcoffee</w>": 3833,
      "Ġboun</w>": 3834,
      "Ġhonor</w>": 3835,
      "Ġag</w>": 3836,
      "Ġkick</w>": 3837,
      "ĠÃ³</w>": 3838,
      "Ġputt</w>": 3839,
      "Ġlated</w>": 3840,
      "Ġskin</w>": 3841,
      "lication</w>": 3842,
      "Ġcode</w>": 3843,
      "ĠSH": 3844,
      "Ġconduct</w>": 3845,
      "Ġdeterm": 3846,
      "Ġrest": 3847,
      "Ġcorrect</w>": 3848,
      "ick": 3849,
      "berg</w>": 3850,
      "ilitie</w>": 3851,
      "Ġdescrib</w>": 3852,
      "ĠOut</w>": 3853,
      "Ġpath</w>": 3854,
      "ĠSaint</w>": 3855,
      "ba</w>": 3856,
      "yond</w>": 3857,
      "Ġsky</w>": 3858,
      "Ġast": 3859,
      "ĠX</w>": 3860,
      "ival</w>": 3861,
      "va</w>": 3862,
      "ĠKeep</w>": 3863,
      "Ġexec": 3864,
      "Ġfaith</w>": 3865,
      "Ġcreas</w>": 3866,
      "AS": 3867,
      "Ġdanger</w>": 3868,
      "rel</w>": 3869,
      "ĠAnother</w>": 3870,
      "Ġworse</w>": 3871,
      "ĠRoy": 3872,
      "Ġformula</w>": 3873,
      "bour</w>": 3874,
      "Ġleng</w>": 3875,
      "Ġknowledge</w>": 3876,
      "ert": 3877,
      "Ġgarden</w>": 3878,
      "Ġsociety</w>": 3879,
      "ournal</w>": 3880,
      "Ġmed": 3881,
      "ĠRuss": 3882,
      "ĠMark</w>": 3883,
      "Ġwave</w>": 3884,
      "Ġrange</w>": 3885,
      "ERE</w>": 3886,
      "ĠAfrica</w>": 3887,
      "Ġwheel</w>": 3888,
      "Ġer": 3889,
      "ĠHm</w>": 3890,
      "Ġplus</w>": 3891,
      "eur</w>": 3892,
      "Ġgotten</w>": 3893,
      "Ġmethod</w>": 3894,
      "Ġeas": 3895,
      "Ġyellow</w>": 3896,
      "ĠOff": 3897,
      "Ġhuge</w>": 3898,
      "Ġcivil</w>": 3899,
      "Ġsurf": 3900,
      "und": 3901,
      "Ġoppos": 3902,
      "Ġtu": 3903,
      "oy</w>": 3904,
      "ĠPa": 3905,
      "Ġeconom": 3906,
      "za</w>": 3907,
      "Ġident": 3908,
      "ddy</w>": 3909,
      "Ġaddress</w>": 3910,
      "Ġhey</w>": 3911,
      "rated</w>": 3912,
      "Ġmm</w>": 3913,
      "Ġnar": 3914,
      "ĠOb": 3915,
      "Ġsolution</w>": 3916,
      "Ġfolk</w>": 3917,
      "Ġp</w>": 3918,
      "Ġyester</w>": 3919,
      "Ġtape</w>": 3920,
      "Ġimage</w>": 3921,
      "Ġify</w>": 3922,
      "ĠWar": 3923,
      "Ġcommune</w>": 3924,
      "Ġearlier</w>": 3925,
      "Ġdoc": 3926,
      "sson</w>": 3927,
      "ĠCont": 3928,
      "Ġhistor</w>": 3929,
      "Ġapproach</w>": 3930,
      "ssure</w>": 3931,
      "isf": 3932,
      "ĠItal</w>": 3933,
      "Ġeffort</w>": 3934,
      "bb</w>": 3935,
      "ath</w>": 3936,
      "Ġsurv": 3937,
      "Ġbli": 3938,
      "ĠDay</w>": 3939,
      "ĠOnce</w>": 3940,
      "Ġoffer</w>": 3941,
      "itation</w>": 3942,
      "xa</w>": 3943,
      "Ġbul": 3944,
      "ĠDev": 3945,
      "ĠHun": 3946,
      "Ġcap</w>": 3947,
      "wd</w>": 3948,
      "Ġdouble</w>": 3949,
      "aly</w>": 3950,
      "Ġdocument</w>": 3951,
      "Ġure</w>": 3952,
      "ĠGame</w>": 3953,
      "Ġcoast</w>": 3954,
      "Ġenviron</w>": 3955,
      "Ġmoon</w>": 3956,
      "Ġative</w>": 3957,
      "gest</w>": 3958,
      "ĠEveryth</w>": 3959,
      "Ġrou": 3960,
      "Ġprinci": 3961,
      "rian</w>": 3962,
      "Ġscreen</w>": 3963,
      "erson</w>": 3964,
      "Ġdistrib": 3965,
      "ĠFl": 3966,
      "Ġcustom</w>": 3967,
      "Ġbet</w>": 3968,
      "ĠScott</w>": 3969,
      "Ġsuffer</w>": 3970,
      "Ġpil": 3971,
      "ĠPer</w>": 3972,
      "tel</w>": 3973,
      "emb": 3974,
      "ĠHur": 3975,
      "gy": 3976,
      "azine</w>": 3977,
      "Ġceleb": 3978,
      "Ġplanet</w>": 3979,
      "ĠFe": 3980,
      "Ġtrade</w>": 3981,
      "liament</w>": 3982,
      "ella</w>": 3983,
      "ĠAra": 3984,
      "Ġglass</w>": 3985,
      "Ġmeasure</w>": 3986,
      "Ġorg": 3987,
      "ĠMast</w>": 3988,
      "ser</w>": 3989,
      "Ġmale</w>": 3990,
      "sport</w>": 3991,
      "ĠUnder</w>": 3992,
      "astern</w>": 3993,
      "sing</w>": 3994,
      "ĠSum": 3995,
      "ĠJoe</w>": 3996,
      "Ġnomin": 3997,
      "Ġwelcome</w>": 3998,
      "arp</w>": 3999,
      "Ġterrible</w>": 4000,
      "Ġbran": 4001,
      "RI": 4002,
      "stice</w>": 4003,
      "Ġinvestig": 4004,
      "ĠFlo": 4005,
      "ĠRec": 4006,
      "elle</w>": 4007,
      "Ġprovince</w>": 4008,
      "Ġwound</w>": 4009,
      "cean</w>": 4010,
      "Ġet</w>": 4011,
      "Ġdefinite</w>": 4012,
      "Ġshape</w>": 4013,
      "Ġtext</w>": 4014,
      "Ġfocus</w>": 4015,
      "Ġflat</w>": 4016,
      "Ġforc</w>": 4017,
      "Ġet": 4018,
      "Ġnone</w>": 4019,
      "Ġtear</w>": 4020,
      "Ġdry</w>": 4021,
      "OT</w>": 4022,
      "Ġoil</w>": 4023,
      "Ġoccasion</w>": 4024,
      "Ġsurface</w>": 4025,
      "Ġcake</w>": 4026,
      "Ġindust": 4027,
      "Ġdeliver</w>": 4028,
      "Ġise</w>": 4029,
      "ex</w>": 4030,
      "Ġplied</w>": 4031,
      "Ġery</w>": 4032,
      "Ġr</w>": 4033,
      "sylv": 4034,
      "Ġflu": 4035,
      "Ġcontact</w>": 4036,
      "ĠCom": 4037,
      "enger</w>": 4038,
      "Ġpar</w>": 4039,
      "Ġcomb": 4040,
      "Ġ....</w>": 4041,
      "Ġnotice</w>": 4042,
      "Ġhol": 4043,
      "Ġacqu": 4044,
      "ĠThoma</w>": 4045,
      "Ġspecific</w>": 4046,
      "utter</w>": 4047,
      "AU": 4048,
      "itution</w>": 4049,
      "ĠMer": 4050,
      "gin": 4051,
      "Ġfrog</w>": 4052,
      "ker</w>": 4053,
      "Ġdamn</w>": 4054,
      "icket</w>": 4055,
      "ĠCould</w>": 4056,
      "aign</w>": 4057,
      "Ġbut": 4058,
      "Ġtheory</w>": 4059,
      "ĠMake</w>": 4060,
      "HT</w>": 4061,
      "ĠSometh</w>": 4062,
      "Ġwit</w>": 4063,
      "Ġmagn": 4064,
      "Ġsmell</w>": 4065,
      "Ġdivision</w>": 4066,
      "ĠChic": 4067,
      "sylvania</w>": 4068,
      "ĠGreek</w>": 4069,
      "pl": 4070,
      "Ġti": 4071,
      "ĠTri": 4072,
      "ĠAlt</w>": 4073,
      "ĠER</w>": 4074,
      "ium</w>": 4075,
      "duce</w>": 4076,
      "oi</w>": 4077,
      "Ġlink</w>": 4078,
      "Ġpun": 4079,
      "Ġpressure</w>": 4080,
      "eria</w>": 4081,
      "Ġproduce</w>": 4082,
      "ĠSn": 4083,
      "Ġsem": 4084,
      "ĠSpan</w>": 4085,
      "ug": 4086,
      "Ġgate</w>": 4087,
      "Ġappre": 4088,
      "Ġedge</w>": 4089,
      "Ġjudge</w>": 4090,
      "ul</w>": 4091,
      "Ġchick</w>": 4092,
      "Ġneighbor</w>": 4093,
      "ĠAccord</w>": 4094,
      "ĠVict": 4095,
      "ĠCourt</w>": 4096,
      "eous</w>": 4097,
      "Ġbelieved</w>": 4098,
      "ez</w>": 4099,
      "ĠRoyal</w>": 4100,
      "oughout</w>": 4101,
      "Ġought</w>": 4102,
      "onel</w>": 4103,
      "ĠMac": 4104,
      "Ġtruck</w>": 4105,
      "retary</w>": 4106,
      "Ġbow</w>": 4107,
      "vant</w>": 4108,
      "cise</w>": 4109,
      "arent</w>": 4110,
      "Ġtall</w>": 4111,
      "Ġnur": 4112,
      "well</w>": 4113,
      "she</w>": 4114,
      "Ġconscious</w>": 4115,
      "Ġcoat</w>": 4116,
      "Ġcamera</w>": 4117,
      "ĠEli": 4118,
      "Ġbenef": 4119,
      "enant</w>": 4120,
      "ĠDemocr": 4121,
      "Ġsatisf": 4122,
      "Ġrac": 4123,
      "olic</w>": 4124,
      "Ġbell</w>": 4125,
      "Ġprovid</w>": 4126,
      "Ġha</w>": 4127,
      "Ġbeyond</w>": 4128,
      "llu": 4129,
      "yo</w>": 4130,
      "Ġbutt</w>": 4131,
      "ele</w>": 4132,
      "ĠOpen</w>": 4133,
      "gment</w>": 4134,
      "Ġcredit</w>": 4135,
      "Ġborder</w>": 4136,
      "ola</w>": 4137,
      "ĠNor</w>": 4138,
      "Ġess": 4139,
      "Ġhonest</w>": 4140,
      "Ġattract</w>": 4141,
      "ĠBoy</w>": 4142,
      "ict</w>": 4143,
      "Ġmail</w>": 4144,
      "hib": 4145,
      "enny</w>": 4146,
      "Ġsettle</w>": 4147,
      "Ġtrip</w>": 4148,
      "Ġdefend</w>": 4149,
      "Ġarrived</w>": 4150,
      "ĠAct": 4151,
      "ĠAnd": 4152,
      "Ġimagine</w>": 4153,
      "ĠFuck</w>": 4154,
      "ĠDon": 4155,
      "ĠTu": 4156,
      "Ġcult": 4157,
      "ran</w>": 4158,
      "Ġwedd</w>": 4159,
      "Ġ}</w>": 4160,
      "ĠDoctor</w>": 4161,
      "Ġwhis": 4162,
      "Ġrank</w>": 4163,
      "Ġoffic</w>": 4164,
      "Ġpositive</w>": 4165,
      "chie": 4166,
      "Ġgift</w>": 4167,
      "Ġrow</w>": 4168,
      "Ġcolour</w>": 4169,
      "ĠSuper</w>": 4170,
      "aur": 4171,
      "lex</w>": 4172,
      "Ġconvers": 4173,
      "ĠBraz": 4174,
      "Ġville</w>": 4175,
      "RE</w>": 4176,
      "Ġaccess</w>": 4177,
      "Ġhall</w>": 4178,
      "Ġchoose</w>": 4179,
      "ĠPennsylvania</w>": 4180,
      "ĠLat": 4181,
      "Ġposs": 4182,
      "Ġtechno</w>": 4183,
      "Ġassist</w>": 4184,
      "zen</w>": 4185,
      "ĠFoot</w>": 4186,
      "Ġcentral</w>": 4187,
      "ĠToday</w>": 4188,
      "bon</w>": 4189,
      "erior</w>": 4190,
      "ĠChicago</w>": 4191,
      "ĠÂ¶</w>": 4192,
      "Ġmess</w>": 4193,
      "ilie</w>": 4194,
      "ĠStar</w>": 4195,
      "Ġcompetition</w>": 4196,
      "Ġad</w>": 4197,
      "Ġbone</w>": 4198,
      "ĠIsn</w>": 4199,
      "Ġfund</w>": 4200,
      "Ġbio</w>": 4201,
      "ora</w>": 4202,
      "Ġfile</w>": 4203,
      "anna</w>": 4204,
      "eat": 4205,
      "Ġstream</w>": 4206,
      "viet</w>": 4207,
      "Ġexcit</w>": 4208,
      "Ġbomb</w>": 4209,
      "iss</w>": 4210,
      "Ġbill</w>": 4211,
      "ko</w>": 4212,
      "illy</w>": 4213,
      "Ġeasily</w>": 4214,
      "ĠSil": 4215,
      "ĠMusic</w>": 4216,
      "ĠMont": 4217,
      "Ġprince</w>": 4218,
      "ĠProf": 4219,
      "ĠNice</w>": 4220,
      "Ġsignific": 4221,
      "Ġbrown</w>": 4222,
      "Ġtrick</w>": 4223,
      "Ġgas</w>": 4224,
      "Ġspaper</w>": 4225,
      "Ġsale</w>": 4226,
      "ĠLife</w>": 4227,
      "Ġrepeat</w>": 4228,
      "Ġslight</w>": 4229,
      "Ġaudi": 4230,
      "Ġparticip": 4231,
      "Ġmanager</w>": 4232,
      "Ġification</w>": 4233,
      "Ġenemy</w>": 4234,
      "ID</w>": 4235,
      "ĠMartin</w>": 4236,
      "Ġcontent</w>": 4237,
      "ĠPrin": 4238,
      "Ġwarn</w>": 4239,
      "Ġtwice</w>": 4240,
      "asp</w>": 4241,
      "rea</w>": 4242,
      "adow</w>": 4243,
      "Ġcensus</w>": 4244,
      "Ġsurprise</w>": 4245,
      "izen</w>": 4246,
      "estival</w>": 4247,
      "ĠHill</w>": 4248,
      "ĠDiv": 4249,
      "ĠUp</w>": 4250,
      "Ġaw</w>": 4251,
      "Ġfir</w>": 4252,
      "Ġangry</w>": 4253,
      "ĠSoviet</w>": 4254,
      "Ġdecide</w>": 4255,
      "ĠBrazil</w>": 4256,
      "ĠHall</w>": 4257,
      "Ġextreme</w>": 4258,
      "RE": 4259,
      "ĠLI": 4260,
      "Ġsymp": 4261,
      "Ġancient</w>": 4262,
      "Ġmass</w>": 4263,
      "Ġhasn</w>": 4264,
      "Ġguest</w>": 4265,
      "sk": 4266,
      "Ġsmile</w>": 4267,
      "ĠLee</w>": 4268,
      "Ġtaste</w>": 4269,
      "LD</w>": 4270,
      "Ġoccup": 4271,
      "ĠGar": 4272,
      "anda</w>": 4273,
      "ban</w>": 4274,
      "stitute</w>": 4275,
      "ĠBen</w>": 4276,
      "ĠShow</w>": 4277,
      "Ġcow</w>": 4278,
      "Ġhide</w>": 4279,
      "arily</w>": 4280,
      "Ġlin": 4281,
      "Ġseparate</w>": 4282,
      "ĠHal": 4283,
      "ĠAct</w>": 4284,
      "Ġlu": 4285,
      "Ġsac": 4286,
      "Ġstudio</w>": 4287,
      "ĠJim</w>": 4288,
      "ashion</w>": 4289,
      "Ġgather</w>": 4290,
      "ato</w>": 4291,
      "ĠPlay</w>": 4292,
      "ĠWant</w>": 4293,
      "iment</w>": 4294,
      "Ġshore</w>": 4295,
      "acle</w>": 4296,
      "Ġaccomp": 4297,
      "aged</w>": 4298,
      "ĠGold</w>": 4299,
      "Ġmemory</w>": 4300,
      "Ġpoet</w>": 4301,
      "ĠFu": 4302,
      "ĠItaly</w>": 4303,
      "ei</w>": 4304,
      "Ġhotel</w>": 4305,
      "ann</w>": 4306,
      "Ġachie": 4307,
      "burg</w>": 4308,
      "ĠPhili": 4309,
      "Ġpret": 4310,
      "unate</w>": 4311,
      "Ġ\\</w>": 4312,
      "Ġdirt</w>": 4313,
      "ĠShould</w>": 4314,
      "Ġflight</w>": 4315,
      "inion</w>": 4316,
      "Ġmaid</w>": 4317,
      "hi</w>": 4318,
      "ĠMet": 4319,
      "Ġproud</w>": 4320,
      "Ġtwelve</w>": 4321,
      "adian</w>": 4322,
      "Ġyouth</w>": 4323,
      "Ġsilver</w>": 4324,
      "Ġiron</w>": 4325,
      "arie</w>": 4326,
      "KE</w>": 4327,
      "itizen</w>": 4328,
      "Ġarg": 4329,
      "Ġlogical</w>": 4330,
      "illa</w>": 4331,
      "Ġepi</w>": 4332,
      "Ġla</w>": 4333,
      "Ġrise</w>": 4334,
      "ĠTown</w>": 4335,
      "Ġwar": 4336,
      "Ġprogram": 4337,
      "AP": 4338,
      "olo": 4339,
      "ĠTurn</w>": 4340,
      "eau</w>": 4341,
      "Ġcrease</w>": 4342,
      "Ġtemper": 4343,
      "ita</w>": 4344,
      "ĠDaddy</w>": 4345,
      "Ġfortunate</w>": 4346,
      "Ġdivid</w>": 4347,
      "Ġedit</w>": 4348,
      "Ġlocation</w>": 4349,
      "ĠCr": 4350,
      "Ġdistinct</w>": 4351,
      "Ġcycle</w>": 4352,
      "ĠAlex": 4353,
      "Ġtar": 4354,
      "Ġlaunch</w>": 4355,
      "Ġmunicipal</w>": 4356,
      "icient</w>": 4357,
      "ĠAnt": 4358,
      "Ġstreng</w>": 4359,
      "Ġpleasure</w>": 4360,
      "Ġcaptain</w>": 4361,
      "lant": 4362,
      "ĠFine</w>": 4363,
      "Ġsurr": 4364,
      "Ġsmart</w>": 4365,
      "ĠSunday</w>": 4366,
      "yan</w>": 4367,
      "Ġstaff</w>": 4368,
      "ĠTexa</w>": 4369,
      "Ġstatistic</w>": 4370,
      "bor": 4371,
      "ini</w>": 4372,
      "lla</w>": 4373,
      "ĠMur": 4374,
      "ĠÃ¤</w>": 4375,
      "Ġcentre</w>": 4376,
      "Ġdriver</w>": 4377,
      "Ġdropp</w>": 4378,
      "ademy</w>": 4379,
      "UT</w>": 4380,
      "Ġsecurity</w>": 4381,
      "ado</w>": 4382,
      "enture</w>": 4383,
      "Ġwint</w>": 4384,
      "Ġbread</w>": 4385,
      "Ġcrowd</w>": 4386,
      "NA</w>": 4387,
      "Ġpossess</w>": 4388,
      "ĠSmith</w>": 4389,
      "ulous</w>": 4390,
      "ĠON</w>": 4391,
      "ov</w>": 4392,
      "Ġboss</w>": 4393,
      "Ġmul": 4394,
      "Ġfamilie</w>": 4395,
      "Ġrequ": 4396,
      "Ġforth</w>": 4397,
      "ĠPhil": 4398,
      "Ġlaid</w>": 4399,
      "Ġcheer</w>": 4400,
      "Ġopinion</w>": 4401,
      "Ġbother</w>": 4402,
      "Ġmir": 4403,
      "Ġstock</w>": 4404,
      "ĠAv": 4405,
      "ĠRos": 4406,
      "ao</w>": 4407,
      "ĠHy": 4408,
      "Ġcampaign</w>": 4409,
      "ĠSant": 4410,
      "rant</w>": 4411,
      "Ġmanner</w>": 4412,
      "iny</w>": 4413,
      "Ġkitch</w>": 4414,
      "EY</w>": 4415,
      "Ġsett": 4416,
      "Ġthroughout</w>": 4417,
      "Ġlunch</w>": 4418,
      "ĠWA": 4419,
      "Ġtaught</w>": 4420,
      "Ġpass": 4421,
      "ĠTy": 4422,
      "ette</w>": 4423,
      "tic</w>": 4424,
      "ĠDra": 4425,
      "Ġster</w>": 4426,
      "Ġgin</w>": 4427,
      "ĠBest</w>": 4428,
      "Ġrelative</w>": 4429,
      "Ġbasket</w>": 4430,
      "Ġnoise</w>": 4431,
      "Ġistic</w>": 4432,
      "Ġox": 4433,
      "Ġpocket</w>": 4434,
      "Ġcompos": 4435,
      "mon</w>": 4436,
      "Ġcorpor": 4437,
      "Ġsharp</w>": 4438,
      "Ġagent</w>": 4439,
      "Ġdang</w>": 4440,
      "ank": 4441,
      "ĠLa</w>": 4442,
      "Ġamb": 4443,
      "Ġanaly": 4444,
      "Ġagreed</w>": 4445,
      "reak</w>": 4446,
      "ĠChief</w>": 4447,
      "Ġprevent</w>": 4448,
      "ĠJo</w>": 4449,
      "Ġopportunity</w>": 4450,
      "Ġtow</w>": 4451,
      "ĠPet": 4452,
      "Ġweather</w>": 4453,
      "Ġsake</w>": 4454,
      "Ġseek</w>": 4455,
      "ĠSin": 4456,
      "rop": 4457,
      "Ġstring</w>": 4458,
      "Ġbigger</w>": 4459,
      "Ġpool</w>": 4460,
      "Ġinfluence</w>": 4461,
      "lam</w>": 4462,
      "ism</w>": 4463,
      "Ġhero</w>": 4464,
      "Ġmedical</w>": 4465,
      "Ġbottle</w>": 4466,
      "Ġsens": 4467,
      "Ġmand</w>": 4468,
      "co": 4469,
      "Ġpolicy</w>": 4470,
      "ĠAtlant": 4471,
      "iction</w>": 4472,
      "Ġmagazine</w>": 4473,
      "Ġcontrib": 4474,
      "Ġroot</w>": 4475,
      "Ġkm</w>": 4476,
      "Ġcalm</w>": 4477,
      "ĠSea</w>": 4478,
      "Ġskill</w>": 4479,
      "llust": 4480,
      "Ġloud</w>": 4481,
      "up</w>": 4482,
      "Ġmini</w>": 4483,
      "Ġtrial</w>": 4484,
      "Ġangle</w>": 4485,
      "Ġshout</w>": 4486,
      "ĠBoth</w>": 4487,
      "Ġfashion</w>": 4488,
      "olve</w>": 4489,
      "lt": 4490,
      "ala</w>": 4491,
      "old</w>": 4492,
      "ĠFI": 4493,
      "bble</w>": 4494,
      "via</w>": 4495,
      "Ġmum</w>": 4496,
      "gry</w>": 4497,
      "Ġclimb</w>": 4498,
      "Ġthou</w>": 4499,
      "range</w>": 4500,
      "Ġcancer</w>": 4501,
      "ĠCentral</w>": 4502,
      "ĠThink</w>": 4503,
      "Ġstudi</w>": 4504,
      "rument</w>": 4505,
      "Ġvictim</w>": 4506,
      "Ġcitie</w>": 4507,
      "ĠCam": 4508,
      "cience</w>": 4509,
      "Ġrough</w>": 4510,
      "Ġlord</w>": 4511,
      "ĠWatch</w>": 4512,
      "ĠLady</w>": 4513,
      "itect</w>": 4514,
      "Ġpromis</w>": 4515,
      "Ġcoll": 4516,
      "ĠBa": 4517,
      "ĠCatholic</w>": 4518,
      "Ġconcept</w>": 4519,
      "ĠWomen</w>": 4520,
      "ĠSam</w>": 4521,
      "Ġcomment</w>": 4522,
      "Ġdriving</w>": 4523,
      "EL": 4524,
      "ĠEgy": 4525,
      "Ġresist</w>": 4526,
      "ulate</w>": 4527,
      "ĠLeave</w>": 4528,
      "Ġthu</w>": 4529,
      "ĠHer": 4530,
      "Ġindic": 4531,
      "Ġworried</w>": 4532,
      "Ġevil</w>": 4533,
      "ĠNext</w>": 4534,
      "Ġpractic</w>": 4535,
      "brary</w>": 4536,
      "ud</w>": 4537,
      "Ġc</w>": 4538,
      "Ġobser": 4539,
      "ĠAfrican</w>": 4540,
      "Ġarticle</w>": 4541,
      "omb": 4542,
      "Ġsyn": 4543,
      "ĠBrow</w>": 4544,
      "ĠY</w>": 4545,
      "Ġexcl": 4546,
      "Ġadminist": 4547,
      "Ġnut</w>": 4548,
      "Ġintroduc</w>": 4549,
      "Ġcourage</w>": 4550,
      "Ġsurvi": 4551,
      "ĠWood</w>": 4552,
      "ĠEvery</w>": 4553,
      "hibit</w>": 4554,
      "onent</w>": 4555,
      "Ġscream</w>": 4556,
      "Ġconversation</w>": 4557,
      "inda</w>": 4558,
      "BC</w>": 4559,
      "Ġden": 4560,
      "ĠMA": 4561,
      "sy</w>": 4562,
      "Ġexperiment</w>": 4563,
      "ĠHelp</w>": 4564,
      "Ġplate</w>": 4565,
      "quence</w>": 4566,
      "Ġbenefit</w>": 4567,
      "TH</w>": 4568,
      "havi": 4569,
      "ĠCanadian</w>": 4570,
      "mo": 4571,
      "ax</w>": 4572,
      "Ġjournal</w>": 4573,
      "Ġproce": 4574,
      "ĠTor": 4575,
      "rol": 4576,
      "ĠAndre": 4577,
      "Ġheaven</w>": 4578,
      "aniel</w>": 4579,
      "Ġtroop</w>": 4580,
      "yor</w>": 4581,
      "sen</w>": 4582,
      "Ġscale</w>": 4583,
      "Ġfruit</w>": 4584,
      "Ġblind</w>": 4585,
      "ecture</w>": 4586,
      "ĠEd": 4587,
      "Ġnegative</w>": 4588,
      "bby</w>": 4589,
      "isc": 4590,
      "Ġemb": 4591,
      "Ġfan</w>": 4592,
      "Ġregard</w>": 4593,
      "Ġmetal</w>": 4594,
      "ĠSqu": 4595,
      "ellig": 4596,
      "ĠYoung</w>": 4597,
      "ĠNobody</w>": 4598,
      "ĠAdam</w>": 4599,
      "Ġamaz</w>": 4600,
      "Ġleague</w>": 4601,
      "mp</w>": 4602,
      "Ġcord</w>": 4603,
      "umn</w>": 4604,
      "Ġtight</w>": 4605,
      "ong": 4606,
      "ĠShut</w>": 4607,
      "ield</w>": 4608,
      "ĠWhoa</w>": 4609,
      "Ġmere</w>": 4610,
      "Ġsignal</w>": 4611,
      "Ġgrave</w>": 4612,
      "uro</w>": 4613,
      "Ġsteal</w>": 4614,
      "ĠNi": 4615,
      "icious</w>": 4616,
      "Ġsaved</w>": 4617,
      "ĠEv": 4618,
      "Ġesc": 4619,
      "enue</w>": 4620,
      "Ġgeneration</w>": 4621,
      "ourney</w>": 4622,
      "ĠMike</w>": 4623,
      "eration</w>": 4624,
      "Ġsire</w>": 4625,
      "ernal</w>": 4626,
      "Ġordinary</w>": 4627,
      "ĠWestern</w>": 4628,
      "Ġpop</w>": 4629,
      "Ġlarger</w>": 4630,
      "Ġscore</w>": 4631,
      "Ġbrief</w>": 4632,
      "Ġversity</w>": 4633,
      "Ġhungry</w>": 4634,
      "itar</w>": 4635,
      "ĠSan": 4636,
      "minal</w>": 4637,
      "Ġjoke</w>": 4638,
      "Ġreligion</w>": 4639,
      "ĠKa": 4640,
      "ĠRoad</w>": 4641,
      "arian</w>": 4642,
      "unt</w>": 4643,
      "Ġquir</w>": 4644,
      "Ġmagic</w>": 4645,
      "Ġhid</w>": 4646,
      "Ġport": 4647,
      "Ġcreature</w>": 4648,
      "ush": 4649,
      "sa</w>": 4650,
      "Ġchart</w>": 4651,
      "Ġlip</w>": 4652,
      "Ġplain</w>": 4653,
      "ĠUncle</w>": 4654,
      "Ġgrant</w>": 4655,
      "Ġwine</w>": 4656,
      "Ġdrew</w>": 4657,
      "ĠLake</w>": 4658,
      "Ġrh": 4659,
      "Ġindustry</w>": 4660,
      "Ġminus</w>": 4661,
      "Ġavoid</w>": 4662,
      "ĠNav": 4663,
      "ING</w>": 4664,
      "ican</w>": 4665,
      "ĠIS</w>": 4666,
      "Ġmulti</w>": 4667,
      "dow</w>": 4668,
      "ĠLY</w>": 4669,
      "ĠGirl</w>": 4670,
      "Ġcrack</w>": 4671,
      "Ġcitizen</w>": 4672,
      "Ġempty</w>": 4673,
      "Ġb</w>": 4674,
      "ĠDown</w>": 4675,
      "Ġruin</w>": 4676,
      "ĠBack</w>": 4677,
      "Ġfright</w>": 4678,
      "ĠSun</w>": 4679,
      "Ġforeign</w>": 4680,
      "Ġhurry</w>": 4681,
      "Ġhadn</w>": 4682,
      "Ġsev": 4683,
      "Ġgard</w>": 4684,
      "Ġneath</w>": 4685,
      "Ġchannel</w>": 4686,
      "utive</w>": 4687,
      "Ġresponsible</w>": 4688,
      "Ġá": 4689,
      "Ġya</w>": 4690,
      "ĠRead</w>": 4691,
      "Ġeth": 4692,
      "ĠCongress</w>": 4693,
      "Ġlake</w>": 4694,
      "Ġstuck</w>": 4695,
      "rier</w>": 4696,
      "ota</w>": 4697,
      "Ġinstrument</w>": 4698,
      "ishop</w>": 4699,
      "ELL</w>": 4700,
      "eph</w>": 4701,
      "Ġduty</w>": 4702,
      "ĠBE</w>": 4703,
      "Ġadult</w>": 4704,
      "ĠFour</w>": 4705,
      "ĠYear</w>": 4706,
      "lid</w>": 4707,
      "orth": 4708,
      "ĠBrother</w>": 4709,
      "Ġcompanie</w>": 4710,
      "Ġdare</w>": 4711,
      "tern</w>": 4712,
      "ĠBlue</w>": 4713,
      "ĠAustral</w>": 4714,
      "Ġspeech</w>": 4715,
      "AM": 4716,
      "ĠAcademy</w>": 4717,
      "ĠMexico</w>": 4718,
      "Ġpretend</w>": 4719,
      "ĠAunt</w>": 4720,
      "Ġinvent</w>": 4721,
      "ĠWE</w>": 4722,
      "IN</w>": 4723,
      "ĠLin": 4724,
      "iser</w>": 4725,
      "bol</w>": 4726,
      "Ġcrew</w>": 4727,
      "Ġactress</w>": 4728,
      "Ġbull</w>": 4729,
      "ĠHa</w>": 4730,
      "Ġmeat</w>": 4731,
      "Ġeconomic</w>": 4732,
      "lay</w>": 4733,
      "Ġplat": 4734,
      "istan</w>": 4735,
      "Ġmotor</w>": 4736,
      "Ġweird</w>": 4737,
      "ĠInt": 4738,
      "UR</w>": 4739,
      "ĠScot</w>": 4740,
      "ok": 4741,
      "lican</w>": 4742,
      "Ġzero</w>": 4743,
      "Ġtoy</w>": 4744,
      "Ġfat</w>": 4745,
      "allenge</w>": 4746,
      "tur</w>": 4747,
      "ĠFol": 4748,
      "Ġbeaut</w>": 4749,
      "Ġvac": 4750,
      "asc": 4751,
      "Ġmedia</w>": 4752,
      "Ġreveal</w>": 4753,
      "Ġloss</w>": 4754,
      "Ġscor</w>": 4755,
      "Ġlack</w>": 4756,
      "ĠBor": 4757,
      "Ġbehavi": 4758,
      "ĠRev": 4759,
      "ĠMajor</w>": 4760,
      "ĠRock</w>": 4761,
      "Ġsuspect</w>": 4762,
      "awn</w>": 4763,
      "Ġign": 4764,
      "Ġneither</w>": 4765,
      "Ġgrass</w>": 4766,
      "Ġemotion</w>": 4767,
      "IS": 4768,
      "Ġliter": 4769,
      "eut": 4770,
      "Ġmort": 4771,
      "Ġwaste</w>": 4772,
      "Ġdrama</w>": 4773,
      "yl</w>": 4774,
      "Ġgal": 4775,
      "Ġunion</w>": 4776,
      "ĠHum": 4777,
      "Ġsym": 4778,
      "Ġchain</w>": 4779,
      "Ġmicro</w>": 4780,
      "Ġsignificant</w>": 4781,
      "Ġcopy</w>": 4782,
      "ology</w>": 4783,
      "Ġmech": 4784,
      "ĠDO": 4785,
      "Ġnomy</w>": 4786,
      "Ġcop</w>": 4787,
      "Ġtor": 4788,
      "Ġrob": 4789,
      "ĠFed": 4790,
      "Ġportion</w>": 4791,
      "Ġly": 4792,
      "Ġgay</w>": 4793,
      "Ġcircle</w>": 4794,
      "Ġroof</w>": 4795,
      "ĠFox</w>": 4796,
      "Ġreali": 4797,
      "Ġrush</w>": 4798,
      "Ġuncle</w>": 4799,
      "nny</w>": 4800,
      "ĠSpain</w>": 4801,
      "Ġteeth</w>": 4802,
      "Ġconstant</w>": 4803,
      "Ġmult": 4804,
      "ĠGl": 4805,
      "Ġspell</w>": 4806,
      "Ġroute</w>": 4807,
      "ĠIsra": 4808,
      "Ġdy</w>": 4809,
      "Ġsmil</w>": 4810,
      "Ġpig</w>": 4811,
      "ĠLos</w>": 4812,
      "ĠDidn</w>": 4813,
      "ĠProfess</w>": 4814,
      "Ġfavor</w>": 4815,
      "Ġtemperature</w>": 4816,
      "ĠStill</w>": 4817,
      "ĠCos</w>": 4818,
      "did": 4819,
      "Ġbitch</w>": 4820,
      "anic</w>": 4821,
      "Ġwre": 4822,
      "ĠHam": 4823,
      "ife</w>": 4824,
      "Ġsurround</w>": 4825,
      "Ġdanc</w>": 4826,
      "bal</w>": 4827,
      "form</w>": 4828,
      "Ġtool</w>": 4829,
      "ĠCur": 4830,
      "Ġsurg": 4831,
      "ĠRussia</w>": 4832,
      "ĠEgypt</w>": 4833,
      "ĠOlymp": 4834,
      "Ġshirt</w>": 4835,
      "ĠBas": 4836,
      "Ġsill</w>": 4837,
      "ĠCharlie</w>": 4838,
      "ĠMove</w>": 4839,
      "elly</w>": 4840,
      "Ġtal": 4841,
      "ĠLater</w>": 4842,
      "Ġladie</w>": 4843,
      "ĠAp": 4844,
      "ĠTry</w>": 4845,
      "Ġsword</w>": 4846,
      "Ġcastle</w>": 4847,
      "ĠDel": 4848,
      "erit</w>": 4849,
      "ĠAlso</w>": 4850,
      "Ġreligious</w>": 4851,
      "Ġtransport</w>": 4852,
      "ĠAssociation</w>": 4853,
      "Ġeco</w>": 4854,
      "servation</w>": 4855,
      "Ġaffair</w>": 4856,
      "ancial</w>": 4857,
      "Ġcommer": 4858,
      "Ġscri": 4859,
      "Ġnotic</w>": 4860,
      "Ġticket</w>": 4861,
      "ond": 4862,
      "Ġjourney</w>": 4863,
      "Ġbiggest</w>": 4864,
      "Ġpunish</w>": 4865,
      "Ġinvest</w>": 4866,
      "ĠBob</w>": 4867,
      "Ġapple</w>": 4868,
      "ĠPort": 4869,
      "Ġassoci": 4870,
      "Ġshadow</w>": 4871,
      "orite</w>": 4872,
      "ĠWHAT</w>": 4873,
      "Ġtarget</w>": 4874,
      "Ġrap": 4875,
      "ĠJim": 4876,
      "ĠUS": 4877,
      "ĠGor": 4878,
      "Ġdamage</w>": 4879,
      "ĠDar": 4880,
      "urb</w>": 4881,
      "Ġwinn</w>": 4882,
      "scend</w>": 4883,
      "Ġ{</w>": 4884,
      "thm</w>": 4885,
      "Ġcloud</w>": 4886,
      "ES": 4887,
      "ilding</w>": 4888,
      "Ġthick</w>": 4889,
      "Ġnative</w>": 4890,
      "Ġsphere</w>": 4891,
      "vor</w>": 4892,
      "ĠIN": 4893,
      "Ġstra": 4894,
      "olar</w>": 4895,
      "ĠÃ¨</w>": 4896,
      "lit</w>": 4897,
      "host</w>": 4898,
      "ĠWork</w>": 4899,
      "Ġcomplet</w>": 4900,
      "Ġharm</w>": 4901,
      "Ġauto</w>": 4902,
      "ĠSur": 4903,
      "Ġtone</w>": 4904,
      "ĠLab": 4905,
      "ĠVirgin": 4906,
      "ĠFive</w>": 4907,
      "Ġpotent</w>": 4908,
      "ĠSome": 4909,
      "ĠLong</w>": 4910,
      "ĠVen": 4911,
      "Ġnorth": 4912,
      "ĠWith": 4913,
      "ĠCarol": 4914,
      "ĠMag": 4915,
      "IGHT</w>": 4916,
      "FF": 4917,
      "pal</w>": 4918,
      "urday</w>": 4919,
      "ĠÏ": 4920,
      "Ġpalace</w>": 4921,
      "ĠSummer</w>": 4922,
      "ĠActual</w>": 4923,
      "Ġir</w>": 4924,
      "urr</w>": 4925,
      "ummy</w>": 4926,
      "apt</w>": 4927,
      "ĠStay</w>": 4928,
      "ĠTA": 4929,
      "ĠME</w>": 4930,
      "Ġterrit": 4931,
      "Ġreceive</w>": 4932,
      "Ġmotion</w>": 4933,
      "Ġinitial</w>": 4934,
      "Ġexcuse</w>": 4935,
      "ĠTer": 4936,
      "Ġfin</w>": 4937,
      "Ġche": 4938,
      "Ġarchitect</w>": 4939,
      "ĠMaj": 4940,
      "Ġextend</w>": 4941,
      "gen</w>": 4942,
      "ĠVirginia</w>": 4943,
      "redi": 4944,
      "ĠCenter</w>": 4945,
      "EE": 4946,
      "Ġappreci": 4947,
      "ĠJac": 4948,
      "andon</w>": 4949,
      "Ġcouncil</w>": 4950,
      "ĠProv": 4951,
      "Ġstrike</w>": 4952,
      "ournament</w>": 4953,
      "sco</w>": 4954,
      "au</w>": 4955,
      "Ġforever</w>": 4956,
      "ĠCy": 4957,
      "Ġtax</w>": 4958,
      "ĠBru": 4959,
      "Ġye</w>": 4960,
      "Ġveh": 4961,
      "Ġshock</w>": 4962,
      "Ġton</w>": 4963,
      "Ġprop</w>": 4964,
      "Ġtie</w>": 4965,
      "Ġsand</w>": 4966,
      "ĠCall</w>": 4967,
      "iff</w>": 4968,
      "wk</w>": 4969,
      "Ġlesson</w>": 4970,
      "thl": 4971,
      "Ġreflect</w>": 4972,
      "ĠFlori": 4973,
      "Ġbrand</w>": 4974,
      "Ġprogress</w>": 4975,
      "iverse</w>": 4976,
      "Ġcultural</w>": 4977,
      "Ġette</w>": 4978,
      "attle</w>": 4979,
      "Ġinstruct</w>": 4980,
      "ckle</w>": 4981,
      "Ġrare</w>": 4982,
      "ĠAN": 4983,
      "ĠCompany</w>": 4984,
      "dan</w>": 4985,
      "ulated</w>": 4986,
      "Ġsurpris</w>": 4987,
      "ĠDen": 4988,
      "sb": 4989,
      "ĠSecond</w>": 4990,
      "ingu": 4991,
      "ache</w>": 4992,
      "ĠCra": 4993,
      "Ġminister</w>": 4994,
      "ĠHarry</w>": 4995,
      "Ġsigh</w>": 4996,
      "ĠCause</w>": 4997,
      "ĠSP": 4998,
      "amber</w>": 4999,
      "ĠMel": 5000,
      "Ġbuilding</w>": 5001,
      "eap</w>": 5002,
      "ĠGroup</w>": 5003,
      "Ġsode</w>": 5004,
      "ounger</w>": 5005,
      "yn</w>": 5006,
      "ĠOk</w>": 5007,
      "eatre</w>": 5008,
      "Ġgiant</w>": 5009,
      "Ġdon": 5010,
      "intain</w>": 5011,
      "Ġrom": 5012,
      "Ġcapt": 5013,
      "ĠDutch</w>": 5014,
      "ĠBay</w>": 5015,
      "Ġpitch</w>": 5016,
      "Ġret": 5017,
      "ĠEach</w>": 5018,
      "Ġsucceed</w>": 5019,
      "ĠDis": 5020,
      "Ġpattern</w>": 5021,
      "ius</w>": 5022,
      "Ġpriest</w>": 5023,
      "liday</w>": 5024,
      "ĠLoui</w>": 5025,
      "uit</w>": 5026,
      "ĠUK</w>": 5027,
      "asier</w>": 5028,
      "enni</w>": 5029,
      "Ġpet": 5030,
      "Ġf</w>": 5031,
      "Ġna": 5032,
      "Ġhyd": 5033,
      "Ġpossib</w>": 5034,
      "RA": 5035,
      "atory</w>": 5036,
      "Ġsmoke</w>": 5037,
      "ivi": 5038,
      "rick</w>": 5039,
      "Ġproducer</w>": 5040,
      "Ġwire</w>": 5041,
      "Ġmeal</w>": 5042,
      "ĠRa": 5043,
      "aker</w>": 5044,
      "Ġfold</w>": 5045,
      "ĠYep</w>": 5046,
      "Ġtask</w>": 5047,
      "ym": 5048,
      "ĠHor": 5049,
      "Ġbillion</w>": 5050,
      "itor</w>": 5051,
      "Ġpleasant</w>": 5052,
      "CH</w>": 5053,
      "eling</w>": 5054,
      "ĠEveryone</w>": 5055,
      "Ġapplication</w>": 5056,
      "ĠFlorida</w>": 5057,
      "ĠJoseph</w>": 5058,
      "lor</w>": 5059,
      "ĠLast</w>": 5060,
      "Ġbru": 5061,
      "Ġfra": 5062,
      "ĠBilly</w>": 5063,
      "ritie</w>": 5064,
      "Ġsoph": 5065,
      "ĠSaturday</w>": 5066,
      "Ġswear</w>": 5067,
      "Ġcloth</w>": 5068,
      "ĠRose</w>": 5069,
      "Ġsymbol</w>": 5070,
      "Ġpara</w>": 5071,
      "Ġraise</w>": 5072,
      "Ġaudience</w>": 5073,
      "Ġguitar</w>": 5074,
      "uous</w>": 5075,
      "ĠExp": 5076,
      "Ġmaintain</w>": 5077,
      "mb": 5078,
      "Ġeasier</w>": 5079,
      "Ġthrew</w>": 5080,
      "Ġcomplex</w>": 5081,
      "ĠJun": 5082,
      "Ġfeatur</w>": 5083,
      "ĠDamn</w>": 5084,
      "riz": 5085,
      "ĠCommun": 5086,
      "lim</w>": 5087,
      "abbit</w>": 5088,
      "ateg": 5089,
      "ami</w>": 5090,
      "ĠDick</w>": 5091,
      "ĠBritain</w>": 5092,
      "ridge</w>": 5093,
      "Ġassign</w>": 5094,
      "Ġmap</w>": 5095,
      "Ġjun": 5096,
      "Ġbutton</w>": 5097,
      "ĠJane</w>": 5098,
      "Ġdesign</w>": 5099,
      "Ġcriminal</w>": 5100,
      "Ġari": 5101,
      "ĠLight</w>": 5102,
      "ĠEmpire</w>": 5103,
      "Ġdomin": 5104,
      "ĠPro</w>": 5105,
      "Ġguilt</w>": 5106,
      "Ġintent</w>": 5107,
      "ĠTi": 5108,
      "ĠHome</w>": 5109,
      "ĠHI": 5110,
      "Ġeld</w>": 5111,
      "ematic</w>": 5112,
      "Ġintellig": 5113,
      "vous</w>": 5114,
      "Ġodd</w>": 5115,
      "Ġfal": 5116,
      "bie</w>": 5117,
      "eutenant</w>": 5118,
      "gham</w>": 5119,
      "Ġmanaged</w>": 5120,
      "Ġshar</w>": 5121,
      "inn": 5122,
      "ĠColonel</w>": 5123,
      "ĠFil": 5124,
      "Ġclient</w>": 5125,
      "ĠGro": 5126,
      "Ġscient</w>": 5127,
      "Ġpsycho</w>": 5128,
      "Ġcalc": 5129,
      "ĠDivision</w>": 5130,
      "ĠFinal</w>": 5131,
      "eese</w>": 5132,
      "Ġshift</w>": 5133,
      "ĠSit</w>": 5134,
      "dget</w>": 5135,
      "ĠTom": 5136,
      "ĠSus": 5137,
      "ĠOri": 5138,
      "Ġchemic</w>": 5139,
      "Ġsum</w>": 5140,
      "Ġresponse</w>": 5141,
      "asse</w>": 5142,
      "ĠOh": 5143,
      "Ġworst</w>": 5144,
      "ean": 5145,
      "ĠAngele</w>": 5146,
      "ellent</w>": 5147,
      "onn": 5148,
      "ĠDou": 5149,
      "ĠCre": 5150,
      "Ġchap": 5151,
      "diot</w>": 5152,
      "rill</w>": 5153,
      "Ġbi</w>": 5154,
      "Ġstarr</w>": 5155,
      "ĠShall</w>": 5156,
      "Ġscrew</w>": 5157,
      "Ġsolve</w>": 5158,
      "wel</w>": 5159,
      "vis</w>": 5160,
      "Ġchallenge</w>": 5161,
      "Ġtypic</w>": 5162,
      "Ġmedal</w>": 5163,
      "Ġvehicle</w>": 5164,
      "bile</w>": 5165,
      "Ġwet</w>": 5166,
      "Ġswitch</w>": 5167,
      "uf": 5168,
      "Ġdetect</w>": 5169,
      "Ġcandid": 5170,
      "ĠSC": 5171,
      "Ġtransl": 5172,
      "Ġuser</w>": 5173,
      "Ġdrunk</w>": 5174,
      "Ġdevice</w>": 5175,
      "ĠPrime</w>": 5176,
      "Ġapparent</w>": 5177,
      "Ġprofess</w>": 5178,
      "Ġcommend</w>": 5179,
      "dder</w>": 5180,
      "Ġburi</w>": 5181,
      "ĠForce</w>": 5182,
      "Ġslave</w>": 5183,
      "UN": 5184,
      "Ġmedicine</w>": 5185,
      "olly</w>": 5186,
      "Ġinvit</w>": 5187,
      "Ġdiss": 5188,
      "Ġpot</w>": 5189,
      "ddie</w>": 5190,
      "ĠEar</w>": 5191,
      "ja</w>": 5192,
      "ĠIre</w>": 5193,
      "ĠJa": 5194,
      "Ġinstance</w>": 5195,
      "uel</w>": 5196,
      "ĠSomeone</w>": 5197,
      "col": 5198,
      "Ġanx": 5199,
      "ĠJean</w>": 5200,
      "Ġknee</w>": 5201,
      "Ġelectron</w>": 5202,
      "ggle</w>": 5203,
      "ĠService</w>": 5204,
      "Ġservant</w>": 5205,
      "Ġofficer</w>": 5206,
      "Ġstor</w>": 5207,
      "Ġdescribe</w>": 5208,
      "ĠLaw</w>": 5209,
      "ĠAll": 5210,
      "ĠDirect</w>": 5211,
      "aurant</w>": 5212,
      "Ġwestern</w>": 5213,
      "ologist</w>": 5214,
      "ĠRoger</w>": 5215,
      "dg</w>": 5216,
      "Ġfinancial</w>": 5217,
      "Ġcrash</w>": 5218,
      "Ġfavorite</w>": 5219,
      "ĠRome</w>": 5220,
      "ĠParliament</w>": 5221,
      "icated</w>": 5222,
      "ĠHead</w>": 5223,
      "lict</w>": 5224,
      "Ġdig": 5225,
      "Ġvictor</w>": 5226,
      "Ġfifteen</w>": 5227,
      "Ġsha": 5228,
      "Ġbless</w>": 5229,
      "ĠImp": 5230,
      "isl": 5231,
      "ĠDri": 5232,
      "ĠCli": 5233,
      "Ġexam": 5234,
      "ule</w>": 5235,
      "onia</w>": 5236,
      "dia</w>": 5237,
      "Ġdin": 5238,
      "ĠFree</w>": 5239,
      "ĠLeg": 5240,
      "outh": 5241,
      "zz</w>": 5242,
      "ĠPak": 5243,
      "Ġyounger</w>": 5244,
      "ĠHE</w>": 5245,
      "Ġfeeling</w>": 5246,
      "Ġopposite</w>": 5247,
      "dle</w>": 5248,
      "icide</w>": 5249,
      "Ġnum": 5250,
      "urie</w>": 5251,
      "ob": 5252,
      "ĠCO": 5253,
      "Ġprofit</w>": 5254,
      "strial</w>": 5255,
      "ĠRail</w>": 5256,
      "Ġargument</w>": 5257,
      "Ġdisplay</w>": 5258,
      "ode</w>": 5259,
      "ĠWi": 5260,
      "Ġduck</w>": 5261,
      "ĠSarah</w>": 5262,
      "Ġtough</w>": 5263,
      "Ġpure</w>": 5264,
      "app</w>": 5265,
      "ault</w>": 5266,
      "Ġher": 5267,
      "Ġli</w>": 5268,
      "Ġstudie</w>": 5269,
      "erious</w>": 5270,
      "ĠPort</w>": 5271,
      "ĠØ": 5272,
      "ĠBet": 5273,
      "Ġpleas</w>": 5274,
      "Ġadj": 5275,
      "Ġcommercial</w>": 5276,
      "Ġlone</w>": 5277,
      "Ġhonour</w>": 5278,
      "ĠPrincess</w>": 5279,
      "ĠALL</w>": 5280,
      "Ġlabor</w>": 5281,
      "ĠPan": 5282,
      "Ġgram</w>": 5283,
      "rin</w>": 5284,
      "ĠMill</w>": 5285,
      "itan</w>": 5286,
      "etch</w>": 5287,
      "Ġproof</w>": 5288,
      "ĠAmy</w>": 5289,
      "Ġimpro": 5290,
      "Ġsilent</w>": 5291,
      "rain</w>": 5292,
      "Ġoccur</w>": 5293,
      "Ġgrade</w>": 5294,
      "xty</w>": 5295,
      "ĠMah": 5296,
      "ansa</w>": 5297,
      "Ġstro": 5298,
      "Ġcousin</w>": 5299,
      "utation</w>": 5300,
      "Ġend": 5301,
      "ĠÙ": 5302,
      "ĠPen": 5303,
      "rence</w>": 5304,
      "Ġcheap</w>": 5305,
      "ĠTony</w>": 5306,
      "Ġquire</w>": 5307,
      "LL": 5308,
      "Ġbodie</w>": 5309,
      "Ġstruck</w>": 5310,
      "ĠHmm</w>": 5311,
      "ĠHoly</w>": 5312,
      "ĠBA": 5313,
      "Ġitem</w>": 5314,
      "lli": 5315,
      "Ġshell</w>": 5316,
      "Ġsplit</w>": 5317,
      "ĠCri": 5318,
      "Ġthee</w>": 5319,
      "Ġlosing</w>": 5320,
      "Ġtiny</w>": 5321,
      "ĠAh": 5322,
      "ĠFire</w>": 5323,
      "eteen</w>": 5324,
      "Ġpant</w>": 5325,
      "Ġstretch</w>": 5326,
      "ĠFriday</w>": 5327,
      "se": 5328,
      "Ġfed": 5329,
      "ĠWelcome</w>": 5330,
      "Ġhan": 5331,
      "Ġlad</w>": 5332,
      "Ġqueen</w>": 5333,
      "Ġdesert</w>": 5334,
      "ĠLatin</w>": 5335,
      "Ġsett</w>": 5336,
      "Ġframe</w>": 5337,
      "Ġmusical</w>": 5338,
      "Ġarrange</w>": 5339,
      "ĠTHI</w>": 5340,
      "ĠSix</w>": 5341,
      "east</w>": 5342,
      "gation</w>": 5343,
      "Ġsence</w>": 5344,
      "vell</w>": 5345,
      "oria</w>": 5346,
      "Ġentire</w>": 5347,
      "ĠGal": 5348,
      "Ġsentence</w>": 5349,
      "edu": 5350,
      "acket</w>": 5351,
      "Ġinnoc": 5352,
      "mond</w>": 5353,
      "ĠChair</w>": 5354,
      "cid</w>": 5355,
      "ĠKN": 5356,
      "Ġboot</w>": 5357,
      "Ġexer": 5358,
      "ĠNight</w>": 5359,
      "Ġbasi</w>": 5360,
      "Ġtongue</w>": 5361,
      "Ġwinner</w>": 5362,
      "Ġcream</w>": 5363,
      "Ġcock</w>": 5364,
      "Ġcontroll</w>": 5365,
      "Ġinhab": 5366,
      "Ġminor</w>": 5367,
      "Ġbranch</w>": 5368,
      "Ġfought</w>": 5369,
      "Ġtemple</w>": 5370,
      "entific</w>": 5371,
      "Ġrestaurant</w>": 5372,
      "Ġg</w>": 5373,
      "ĠJack": 5374,
      "embly</w>": 5375,
      "Ġstrang</w>": 5376,
      "iv</w>": 5377,
      "Ġce": 5378,
      "ĠSea": 5379,
      "erk</w>": 5380,
      "Ġocean</w>": 5381,
      "ĠDan</w>": 5382,
      "ĠJimmy</w>": 5383,
      "ĠAm</w>": 5384,
      "apa</w>": 5385,
      "ĠBook</w>": 5386,
      "ocal</w>": 5387,
      "ĠPL": 5388,
      "Ġrul</w>": 5389,
      "Ġic": 5390,
      "Ġaltern": 5391,
      "Ġgeo</w>": 5392,
      "asy</w>": 5393,
      "Ġadvice</w>": 5394,
      "ali</w>": 5395,
      "ĠPea": 5396,
      "olate</w>": 5397,
      "Ġlabel</w>": 5398,
      "Ġeigh": 5399,
      "Ġsilence</w>": 5400,
      "Ġactivity</w>": 5401,
      "Ġmatche</w>": 5402,
      "Ġprinciple</w>": 5403,
      "bs": 5404,
      "ĠBO": 5405,
      "eme</w>": 5406,
      "Ġafford</w>": 5407,
      "rid</w>": 5408,
      "ĠChri</w>": 5409,
      "Ġalg": 5410,
      "eh</w>": 5411,
      "ĠCommitt</w>": 5412,
      "OME</w>": 5413,
      "ĠInstitute</w>": 5414,
      "ĠKu": 5415,
      "Ġdeclar</w>": 5416,
      "Ġstrateg": 5417,
      "Ġcandidate</w>": 5418,
      "TH": 5419,
      "ji</w>": 5420,
      "Ġah</w>": 5421,
      "ENT</w>": 5422,
      "ĠDemocratic</w>": 5423,
      "eddy</w>": 5424,
      "Ġsuck</w>": 5425,
      "ĠKe": 5426,
      "ION</w>": 5427,
      "Ġholiday</w>": 5428,
      "Ġnervous</w>": 5429,
      "Ġcash</w>": 5430,
      "ĠTro": 5431,
      "Ġjail</w>": 5432,
      "Ġexch": 5433,
      "Ġconcert</w>": 5434,
      "ĠSecretary</w>": 5435,
      "Ġfiction</w>": 5436,
      "ĠJohnny</w>": 5437,
      "itzer</w>": 5438,
      "ĠSol": 5439,
      "ĠFOR</w>": 5440,
      "ĠÄģ</w>": 5441,
      "Ġfortune</w>": 5442,
      "Ġterror</w>": 5443,
      "Ġhappi</w>": 5444,
      "Ġsheet</w>": 5445,
      "Ġsugar</w>": 5446,
      "ĠMcC": 5447,
      "ĠGeorg": 5448,
      "Ġwhere": 5449,
      "Ġadvant</w>": 5450,
      "Ġtraff": 5451,
      "ĠAla": 5452,
      "Ġcloser</w>": 5453,
      "iple</w>": 5454,
      "Ġgag</w>": 5455,
      "sta</w>": 5456,
      "ĠSel": 5457,
      "ĠStand</w>": 5458,
      "Ġinstant</w>": 5459,
      "Ġcere": 5460,
      "Ġrat</w>": 5461,
      "ĠArm": 5462,
      "xi</w>": 5463,
      "Ġsettled</w>": 5464,
      "ĠWater</w>": 5465,
      "ĠKar": 5466,
      "Ġprefer</w>": 5467,
      "GH</w>": 5468,
      "Ġupper</w>": 5469,
      "illa": 5470,
      "grat": 5471,
      "Ġtrail</w>": 5472,
      "Ġti</w>": 5473,
      "Ġninety</w>": 5474,
      "red</w>": 5475,
      "Ġmoral</w>": 5476,
      "Ġphilo</w>": 5477,
      "ĠAtt": 5478,
      "yon</w>": 5479,
      "ĠCL": 5480,
      "ĠArch": 5481,
      "ĠRecord</w>": 5482,
      "ĠSteve</w>": 5483,
      "ĠSociety</w>": 5484,
      "ĠMajest</w>": 5485,
      "Ġfamili": 5486,
      "Ġflag</w>": 5487,
      "Ġoccurr</w>": 5488,
      "ĠScience</w>": 5489,
      "ĠOlympic</w>": 5490,
      "Ġtournament</w>": 5491,
      "mon": 5492,
      "Ġrapid</w>": 5493,
      "ĠMy": 5494,
      "Ġhorn</w>": 5495,
      "po</w>": 5496,
      "ĠIran</w>": 5497,
      "ĠFranc": 5498,
      "Ġdarl</w>": 5499,
      "ĠRay</w>": 5500,
      "Ġcompet</w>": 5501,
      "ĠMos": 5502,
      "Ġdust</w>": 5503,
      "ima</w>": 5504,
      "Ġpublican</w>": 5505,
      "Ġbare</w>": 5506,
      "Ġscar": 5507,
      "ĠNO</w>": 5508,
      "Ġbast</w>": 5509,
      "rator</w>": 5510,
      "ira</w>": 5511,
      "eden</w>": 5512,
      "ĠEmm": 5513,
      "Ġbeach</w>": 5514,
      "ym</w>": 5515,
      "ĠIll": 5516,
      "ĠCo</w>": 5517,
      "ĠBank</w>": 5518,
      "ĠDef": 5519,
      "Ġrent</w>": 5520,
      "ĠConst": 5521,
      "US": 5522,
      "alitie</w>": 5523,
      "thur</w>": 5524,
      "Ġfifth</w>": 5525,
      "ĠDO</w>": 5526,
      "ĠEr": 5527,
      "ĠDor": 5528,
      "ĠFer": 5529,
      "ĠShit</w>": 5530,
      "Ġaim</w>": 5531,
      "Ġlic": 5532,
      "Ġknife</w>": 5533,
      "ĠNick</w>": 5534,
      "ĠCommand</w>": 5535,
      "asty</w>": 5536,
      "uckle</w>": 5537,
      "ĠAnn": 5538,
      "CT</w>": 5539,
      "Ġpoem</w>": 5540,
      "Ġwebs": 5541,
      "Ġmetre</w>": 5542,
      "dney</w>": 5543,
      "Ġdivor": 5544,
      "Ġthy</w>": 5545,
      "ĠKim</w>": 5546,
      "ĠMAN</w>": 5547,
      "yl": 5548,
      "Ġbite</w>": 5549,
      "Ġcharg</w>": 5550,
      "ĠJackson</w>": 5551,
      "Ġsupply</w>": 5552,
      "Ġobtain</w>": 5553,
      "spect</w>": 5554,
      "ĠFollow</w>": 5555,
      "Ġwebsite</w>": 5556,
      "ght": 5557,
      "Ġnarrow</w>": 5558,
      "Ġpassion</w>": 5559,
      "ĠAye</w>": 5560,
      "ĠAlan</w>": 5561,
      "Ġbelief</w>": 5562,
      "Ġcarbon</w>": 5563,
      "ĠTran": 5564,
      "Ġdiag": 5565,
      "Ġpipe</w>": 5566,
      "ĠHurry</w>": 5567,
      "osen</w>": 5568,
      "rass</w>": 5569,
      "ĠAz": 5570,
      "Ġpropos": 5571,
      "Ġcommunication</w>": 5572,
      "Ġheight</w>": 5573,
      "Ġidiot</w>": 5574,
      "Ġcomedy</w>": 5575,
      "ether</w>": 5576,
      "Ġconcent": 5577,
      "ĠSE": 5578,
      "kh": 5579,
      "ĠHi": 5580,
      "Ġdiam": 5581,
      "allow</w>": 5582,
      "Ġthroat</w>": 5583,
      "Ġcharm</w>": 5584,
      "ĠDaniel</w>": 5585,
      "Ġconfer</w>": 5586,
      "ĠConn": 5587,
      "Ġprem": 5588,
      "Ġsixty</w>": 5589,
      "Ġfederal</w>": 5590,
      "Ġrevolution</w>": 5591,
      "ĠGla": 5592,
      "Ġpassenger</w>": 5593,
      "Ġweal</w>": 5594,
      "Ġvolume</w>": 5595,
      "ĠMarg": 5596,
      "abb": 5597,
      "Ġfamiliar</w>": 5598,
      "Ġcomplain</w>": 5599,
      "ador</w>": 5600,
      "ĠEliz": 5601,
      "Ġeleven</w>": 5602,
      "Ġnineteen</w>": 5603,
      "Ġfant": 5604,
      "opher</w>": 5605,
      "ĠHas</w>": 5606,
      "ĠPac": 5607,
      "REA": 5608,
      "Ġfus</w>": 5609,
      "Ġtim": 5610,
      "stitution</w>": 5611,
      "Ġhello</w>": 5612,
      "ĠStan": 5613,
      "Ġinstitution</w>": 5614,
      "ĠLaugh</w>": 5615,
      "erous</w>": 5616,
      "oli": 5617,
      "ĠVo": 5618,
      "anish</w>": 5619,
      "ĠOs": 5620,
      "thy</w>": 5621,
      "ĠMuseum</w>": 5622,
      "Ġtheme</w>": 5623,
      "ĠIrish</w>": 5624,
      "bo</w>": 5625,
      "ĠSound</w>": 5626,
      "Ġpoison</w>": 5627,
      "ĠVer": 5628,
      "ĠColumb": 5629,
      "Ġchest</w>": 5630,
      "Ġquar": 5631,
      "ĠRO": 5632,
      "ĠSteph": 5633,
      "ĠMuslim</w>": 5634,
      "ĠRobin</w>": 5635,
      "ersey</w>": 5636,
      "onst": 5637,
      "Ġinfect</w>": 5638,
      "Ġprimary</w>": 5639,
      "Ġcommission</w>": 5640,
      "ĠDun": 5641,
      "Ġmonster</w>": 5642,
      "rative</w>": 5643,
      "ĠGri": 5644,
      "Ġtray</w>": 5645,
      "ĠSpi": 5646,
      "ĠToo</w>": 5647,
      "erine</w>": 5648,
      "the": 5649,
      "AR</w>": 5650,
      "Ġstatu</w>": 5651,
      "Ġtropic</w>": 5652,
      "ĠDet": 5653,
      "Ġeh</w>": 5654,
      "kon</w>": 5655,
      "Ġadapt</w>": 5656,
      "ĠSweden</w>": 5657,
      "ĠFam": 5658,
      "ila</w>": 5659,
      "Ġsnake</w>": 5660,
      "ĠBla": 5661,
      "ĠFair</w>": 5662,
      "Ġresident</w>": 5663,
      "Ġkidd</w>": 5664,
      "ĠAgain</w>": 5665,
      "enever</w>": 5666,
      "ĠLar": 5667,
      "Ġgrace</w>": 5668,
      "Ġmanuf": 5669,
      "ĠProvince</w>": 5670,
      "chest": 5671,
      "lement</w>": 5672,
      "ĠBre": 5673,
      "essel</w>": 5674,
      "Ġspect": 5675,
      "inc</w>": 5676,
      "Ġlibrary</w>": 5677,
      "Ġterm": 5678,
      "Ġnd</w>": 5679,
      "Ġmultiple</w>": 5680,
      "Ġchosen</w>": 5681,
      "Ġschedu": 5682,
      "Ġdigit</w>": 5683,
      "ĠDeath</w>": 5684,
      "ĠPolice</w>": 5685,
      "eze</w>": 5686,
      "Ġexhibit</w>": 5687,
      "Ġroy</w>": 5688,
      "inoi</w>": 5689,
      "ĠVol": 5690,
      "Ġaid</w>": 5691,
      "Ġgen</w>": 5692,
      "ĠAsia</w>": 5693,
      "Ġblame</w>": 5694,
      "Ġexpensive</w>": 5695,
      "Ġdyn": 5696,
      "ĠAndrew</w>": 5697,
      "eton</w>": 5698,
      "Ġmath": 5699,
      "ĠAlex</w>": 5700,
      "Ġbowl</w>": 5701,
      "Ġtip</w>": 5702,
      "Ġult": 5703,
      "imm</w>": 5704,
      "Ġscientific</w>": 5705,
      "ĠKi": 5706,
      "ĠFilm</w>": 5707,
      "Ġorange</w>": 5708,
      "Ġcent</w>": 5709,
      "ĠAlice</w>": 5710,
      "Ġcheese</w>": 5711,
      "Ġapolog": 5712,
      "Ġra": 5713,
      "Ġappeal</w>": 5714,
      "Ġgang</w>": 5715,
      "Ġbullet</w>": 5716,
      "ĠKat": 5717,
      "Ġflash</w>": 5718,
      "ĠPub": 5719,
      "Ġachieve</w>": 5720,
      "Ġinteg": 5721,
      "Ġda</w>": 5722,
      "Ġuniverse</w>": 5723,
      "Ġcircum": 5724,
      "Ġmuseum</w>": 5725,
      "Ġshame</w>": 5726,
      "ĠJU": 5727,
      "Ġplent</w>": 5728,
      "spir": 5729,
      "Ġactivitie</w>": 5730,
      "Ġadmit</w>": 5731,
      "Ġlatter</w>": 5732,
      "Ġgru": 5733,
      "Ġexpert</w>": 5734,
      "ario</w>": 5735,
      "Ġfrequent</w>": 5736,
      "ĠDanny</w>": 5737,
      "Ġmass": 5738,
      "Ġpiano</w>": 5739,
      "Ġpurch": 5740,
      "ĠMiddle</w>": 5741,
      "ĠSocial</w>": 5742,
      "clear</w>": 5743,
      "Ġible</w>": 5744,
      "ĠWalk</w>": 5745,
      "xim": 5746,
      "ito</w>": 5747,
      "alo": 5748,
      "ĠMY</w>": 5749,
      "iz</w>": 5750,
      "ont": 5751,
      "porary</w>": 5752,
      "oritie</w>": 5753,
      "ĠSimon</w>": 5754,
      "Ġsteam</w>": 5755,
      "Ġexpand</w>": 5756,
      "Ġserving</w>": 5757,
      "vin</w>": 5758,
      "Ġbunch</w>": 5759,
      "Ġtechnic</w>": 5760,
      "ĠWere</w>": 5761,
      "ĠSpeak</w>": 5762,
      "Ġpul": 5763,
      "ĠHan</w>": 5764,
      "Ġnow": 5765,
      "Ġhook</w>": 5766,
      "Ġcolumn</w>": 5767,
      "Ġconfess</w>": 5768,
      "Ġnurse</w>": 5769,
      "Ġbrave</w>": 5770,
      "ĠIII</w>": 5771,
      "Ġcompar</w>": 5772,
      "otic</w>": 5773,
      "Ġentertain</w>": 5774,
      "ĠCommission</w>": 5775,
      "Ġetc</w>": 5776,
      "Ġtraffic</w>": 5777,
      "Ġshine</w>": 5778,
      "ero": 5779,
      "VER</w>": 5780,
      "pret</w>": 5781,
      "vert": 5782,
      "ump": 5783,
      "ĠMass": 5784,
      "Ġbusin": 5785,
      "Ġgraduat</w>": 5786,
      "geant</w>": 5787,
      "Ġsin</w>": 5788,
      "ĠIslam</w>": 5789,
      "Ġmobile</w>": 5790,
      "Ġw</w>": 5791,
      "Ġmarch</w>": 5792,
      "ĠJuli": 5793,
      "Ġtale</w>": 5794,
      "Ġflew</w>": 5795,
      "ĠArthur</w>": 5796,
      "Ġghost</w>": 5797,
      "arch</w>": 5798,
      "ĠSuch</w>": 5799,
      "Ġmathematic</w>": 5800,
      "Ġscholar</w>": 5801,
      "ĠJam": 5802,
      "rase</w>": 5803,
      "actur</w>": 5804,
      "Ġpink</w>": 5805,
      "ĠMen</w>": 5806,
      "ĠGlo": 5807,
      "ĠTommy</w>": 5808,
      "Ġattach</w>": 5809,
      "Ġincident</w>": 5810,
      "Ġpilot</w>": 5811,
      "Ġwra": 5812,
      "AL</w>": 5813,
      "ĠTa": 5814,
      "adium</w>": 5815,
      "ĠConf": 5816,
      "ĠFound</w>": 5817,
      "icate</w>": 5818,
      "Ġcognize</w>": 5819,
      "he": 5820,
      "ĠKenn": 5821,
      "Ġu</w>": 5822,
      "Ġresc": 5823,
      "chant</w>": 5824,
      "Ġthin</w>": 5825,
      "ĠElizab</w>": 5826,
      "Ġpan": 5827,
      "tha</w>": 5828,
      "Ġrealized</w>": 5829,
      "iro</w>": 5830,
      "Ġrespond</w>": 5831,
      "Ġvessel</w>": 5832,
      "ĠWin": 5833,
      "chester</w>": 5834,
      "isa</w>": 5835,
      "Ġadvance</w>": 5836,
      "ĠTurk</w>": 5837,
      "Ġspl": 5838,
      "Ġclasse</w>": 5839,
      "sky</w>": 5840,
      "Ġhidden</w>": 5841,
      "ĠYOUR</w>": 5842,
      "ĠMaria</w>": 5843,
      "ĠTem": 5844,
      "ricane</w>": 5845,
      "ĠCarolina</w>": 5846,
      "Ġeastern</w>": 5847,
      "lud</w>": 5848,
      "igar</w>": 5849,
      "win</w>": 5850,
      "ĠUk": 5851,
      "Ġexercise</w>": 5852,
      "Ġathl": 5853,
      "IC</w>": 5854,
      "ĠEst": 5855,
      "Ġliqu": 5856,
      "Ġdetermin</w>": 5857,
      "RY</w>": 5858,
      "ĠGil": 5859,
      "Ġveg": 5860,
      "Ġinsist</w>": 5861,
      "Ġdustrial</w>": 5862,
      "Ġformal</w>": 5863,
      "Ġkilo</w>": 5864,
      "ĠBring</w>": 5865,
      "ĠSon</w>": 5866,
      "Ġplatform</w>": 5867,
      "Ġvirt": 5868,
      "lliant</w>": 5869,
      "ĠBaby</w>": 5870,
      "ferr</w>": 5871,
      "phant</w>": 5872,
      "ub": 5873,
      "ĠArg": 5874,
      "ua</w>": 5875,
      "Ġseal</w>": 5876,
      "Ġannual</w>": 5877,
      "rite</w>": 5878,
      "stein</w>": 5879,
      "ĠDear</w>": 5880,
      "ricket</w>": 5881,
      "Ġinnocent</w>": 5882,
      "Ġlover</w>": 5883,
      "Ġapply</w>": 5884,
      "ĠAnyth</w>": 5885,
      "anized</w>": 5886,
      "ĠMountain</w>": 5887,
      "ĠIllinoi</w>": 5888,
      "urance</w>": 5889,
      "ĠFranci": 5890,
      "Ġclimate</w>": 5891,
      "cies</w>": 5892,
      "Ġresponsibility</w>": 5893,
      "ĠTay": 5894,
      "Ġcapac": 5895,
      "Ġpour</w>": 5896,
      "ĠMa</w>": 5897,
      "ĠGer": 5898,
      "Ġfil": 5899,
      "ĠEduc": 5900,
      "Ġwhisper</w>": 5901,
      "Ġized</w>": 5902,
      "Ġcabin</w>": 5903,
      "Ġjustice</w>": 5904,
      "Ġtravell</w>": 5905,
      "ĠBoston</w>": 5906,
      "Ġsalt</w>": 5907,
      "Ġbudget</w>": 5908,
      "Ġtalent</w>": 5909,
      "Ġbond</w>": 5910,
      "Ġhmm</w>": 5911,
      "wan</w>": 5912,
      "ĠValley</w>": 5913,
      "Ġcorre": 5914,
      "Ġren": 5915,
      "Ġisation</w>": 5916,
      "erce</w>": 5917,
      "Ġprai": 5918,
      "ĠNar": 5919,
      "ĠPy": 5920,
      "ĠMonday</w>": 5921,
      "ANT</w>": 5922,
      "ĠZea</w>": 5923,
      "ĠTot": 5924,
      "Ġbehavior</w>": 5925,
      "Ġdevil</w>": 5926,
      "ĠRam": 5927,
      "ĠJone</w>": 5928,
      "Ġinterpret</w>": 5929,
      "Ġvalley</w>": 5930,
      "Ġfloat</w>": 5931,
      "preme</w>": 5932,
      "Ġstated</w>": 5933,
      "Ġcrown</w>": 5934,
      "ĠSub</w>": 5935,
      "aire</w>": 5936,
      "Ġtank</w>": 5937,
      "Ġsheep</w>": 5938,
      "Ġprize</w>": 5939,
      "Ġrequest</w>": 5940,
      "Ġabandon</w>": 5941,
      "ĠCHAP": 5942,
      "ggie</w>": 5943,
      "ĠKorea</w>": 5944,
      "ĠBon": 5945,
      "itant</w>": 5946,
      "Ġquant": 5947,
      "Ġpartie</w>": 5948,
      "Ġfalse</w>": 5949,
      "Ġdebt</w>": 5950,
      "ĠStation</w>": 5951,
      "ĠMax</w>": 5952,
      "ĠNaz": 5953,
      "Ġvot</w>": 5954,
      "sp</w>": 5955,
      "Ġdread</w>": 5956,
      "Ġslide</w>": 5957,
      "Ġdeserve</w>": 5958,
      "ĠTeam</w>": 5959,
      "Ġacid</w>": 5960,
      "cia</w>": 5961,
      "Ġsoil</w>": 5962,
      "ĠGuy</w>": 5963,
      "under</w>": 5964,
      "Ġemerg": 5965,
      "Ġinvestigation</w>": 5966,
      "Ġsolved</w>": 5967,
      "IC": 5968,
      "Ġtribe</w>": 5969,
      "ishe</w>": 5970,
      "Ġsurvive</w>": 5971,
      "Ġowe</w>": 5972,
      "oul": 5973,
      "Ġaunt</w>": 5974,
      "ĠHappy</w>": 5975,
      "ĠBattle</w>": 5976,
      "Ġbrush</w>": 5977,
      "eno</w>": 5978,
      "ĠMommy</w>": 5979,
      "icer</w>": 5980,
      "Ġbelt</w>": 5981,
      "Ġpredict</w>": 5982,
      "west</w>": 5983,
      "Ġchari": 5984,
      "ĠÎ¿</w>": 5985,
      "ĠShe": 5986,
      "ĠBh": 5987,
      "Ġfavour</w>": 5988,
      "Ġchose</w>": 5989,
      "Ġprior</w>": 5990,
      "rat</w>": 5991,
      "gi": 5992,
      "gger</w>": 5993,
      "ĠPra": 5994,
      "spond</w>": 5995,
      "ĠLand</w>": 5996,
      "Ġsuicide</w>": 5997,
      "ĠCHAPTER</w>": 5998,
      "sor</w>": 5999,
      "ĠWale</w>": 6000,
      "ĠBul": 6001,
      "Ġestate</w>": 6002,
      "Ġta</w>": 6003,
      "ĠTre": 6004,
      "ĠÃ±</w>": 6005,
      "Ġlion</w>": 6006,
      "Ġcurious</w>": 6007,
      "ounce</w>": 6008,
      "action</w>": 6009,
      "olt</w>": 6010,
      "Ġh</w>": 6011,
      "Ġpeak</w>": 6012,
      "Ġangel</w>": 6013,
      "omo</w>": 6014,
      "ĠPre</w>": 6015,
      "Ġdozen</w>": 6016,
      "Ġloose</w>": 6017,
      "ĠIsrael</w>": 6018,
      "su</w>": 6019,
      "ĠWithout</w>": 6020,
      "inguish</w>": 6021,
      "can</w>": 6022,
      "ĠÑ": 6023,
      "Ġlegisl": 6024,
      "Ġsenior</w>": 6025,
      "ĠWAS</w>": 6026,
      "no</w>": 6027,
      "Ġfuel</w>": 6028,
      "ĠExact</w>": 6029,
      "UR": 6030,
      "ega</w>": 6031,
      "awa</w>": 6032,
      "Ġsacrif": 6033,
      "ĠEducation</w>": 6034,
      "Ġdail</w>": 6035,
      "Ġinvolve</w>": 6036,
      "Ġviolence</w>": 6037,
      "Ġclever</w>": 6038,
      "Ġvariety</w>": 6039,
      "ĠJor": 6040,
      "Ġcateg": 6041,
      "Ġconse": 6042,
      "Ġvan</w>": 6043,
      "Ġconflict</w>": 6044,
      "ĠWIT": 6045,
      "ĠOx": 6046,
      "Ġridic": 6047,
      "una</w>": 6048,
      "aya</w>": 6049,
      "Ġdemonst": 6050,
      "ĠTen</w>": 6051,
      "ĠAB": 6052,
      "Ġappropri": 6053,
      "Ġhabit</w>": 6054,
      "ĠEastern</w>": 6055,
      "ĠEmper</w>": 6056,
      "thew</w>": 6057,
      "ĠMod": 6058,
      "ĠYet</w>": 6059,
      "Ġpropos</w>": 6060,
      "Ġbor</w>": 6061,
      "Ġopera</w>": 6062,
      "ĠRadi": 6063,
      "ix</w>": 6064,
      "stance</w>": 6065,
      "Ġreferr</w>": 6066,
      "Ġcompos</w>": 6067,
      "Ġadvanc</w>": 6068,
      "ĠClass</w>": 6069,
      "IE</w>": 6070,
      "ski</w>": 6071,
      "Ġsouth": 6072,
      "ĠWalter</w>": 6073,
      "Ġcaptur</w>": 6074,
      "ĠTon": 6075,
      "ĠRh": 6076,
      "ĠBarb": 6077,
      "Ġmount</w>": 6078,
      "Ġincredi": 6079,
      "Ġarrang</w>": 6080,
      "af": 6081,
      "ett": 6082,
      "ĠSenate</w>": 6083,
      "ocolate</w>": 6084,
      "Ġtechnique</w>": 6085,
      "ĠMean</w>": 6086,
      "lusion</w>": 6087,
      "iral</w>": 6088,
      "Ġdistribut</w>": 6089,
      "ĠNOT</w>": 6090,
      "ĠHoney</w>": 6091,
      "ob</w>": 6092,
      "ĠLAU": 6093,
      "sm": 6094,
      "Ġjuice</w>": 6095,
      "ox</w>": 6096,
      "ud": 6097,
      "enna</w>": 6098,
      "Ġarrive</w>": 6099,
      "llustration</w>": 6100,
      "Ġassociated</w>": 6101,
      "Ġcognized</w>": 6102,
      "Ġje": 6103,
      "ĠEp": 6104,
      "aria</w>": 6105,
      "Ġstruggle</w>": 6106,
      "ĠThr": 6107,
      "Ġexchange</w>": 6108,
      "Ġflood</w>": 6109,
      "Ġquit</w>": 6110,
      "Ġscope</w>": 6111,
      "ĠKill</w>": 6112,
      "Ġpath": 6113,
      "Ġbuck</w>": 6114,
      "Ġimpact</w>": 6115,
      "Ġappreciate</w>": 6116,
      "ĠSwitzer</w>": 6117,
      "Ġdism": 6118,
      "aur</w>": 6119,
      "Ġadventure</w>": 6120,
      "Ġneighbour</w>": 6121,
      "emn</w>": 6122,
      "Ġloan</w>": 6123,
      "Ġprogramme</w>": 6124,
      "thon</w>": 6125,
      "uk": 6126,
      "Ġshake</w>": 6127,
      "ĠLine</w>": 6128,
      "Ġarch</w>": 6129,
      "IM": 6130,
      "andy</w>": 6131,
      "Ġpare</w>": 6132,
      "Ġgrate</w>": 6133,
      "Ġconfus</w>": 6134,
      "gen": 6135,
      "Ġmer</w>": 6136,
      "emist</w>": 6137,
      "Ġlax</w>": 6138,
      "ĠTalk</w>": 6139,
      "Ġstress</w>": 6140,
      "Ġsolid</w>": 6141,
      "Ġcompanion</w>": 6142,
      "Ġnerve</w>": 6143,
      "IT</w>": 6144,
      "Ġfancy</w>": 6145,
      "ĠFr</w>": 6146,
      "ĠPoor</w>": 6147,
      "Ġcigar</w>": 6148,
      "Ġlap</w>": 6149,
      "Ġattitude</w>": 6150,
      "Ġequip</w>": 6151,
      "Ġsevere</w>": 6152,
      "Ġsemi</w>": 6153,
      "Ġterritory</w>": 6154,
      "nam</w>": 6155,
      "zo</w>": 6156,
      "emie</w>": 6157,
      "Ġproceed</w>": 6158,
      "roe</w>": 6159,
      "Ġcontra": 6160,
      "Ġbreast</w>": 6161,
      "ĠSport</w>": 6162,
      "Ġsophy</w>": 6163,
      "Ġv</w>": 6164,
      "isode</w>": 6165,
      "Ġregister</w>": 6166,
      "Ġorganized</w>": 6167,
      "Ġpa</w>": 6168,
      "Ġstom": 6169,
      "ĠAndy</w>": 6170,
      "Ġfate</w>": 6171,
      "Ġreduc</w>": 6172,
      "wa</w>": 6173,
      "Ġcute</w>": 6174,
      "Ġburst</w>": 6175,
      "ĠPhilipp": 6176,
      "Ġexcellent</w>": 6177,
      "Ġhung</w>": 6178,
      "eve</w>": 6179,
      "Ġpsych": 6180,
      "ĠTar": 6181,
      "Ġrd</w>": 6182,
      "Ġguide</w>": 6183,
      "EO</w>": 6184,
      "anent</w>": 6185,
      "utie</w>": 6186,
      "chi</w>": 6187,
      "ĠAlexand</w>": 6188,
      "ximate</w>": 6189,
      "ĠSpring</w>": 6190,
      "ĠHAVE</w>": 6191,
      "Ġclick</w>": 6192,
      "ĠLib": 6193,
      "Ġtruly</w>": 6194,
      "ĠProt": 6195,
      "sive</w>": 6196,
      "Ġdescend</w>": 6197,
      "Ġident</w>": 6198,
      "rom": 6199,
      "ĠMount</w>": 6200,
      "Ġdrove</w>": 6201,
      "ĠJerry</w>": 6202,
      "Ġalarm</w>": 6203,
      "Ġprime</w>": 6204,
      "Ġconvent</w>": 6205,
      "Ġcott": 6206,
      "Ġdesk</w>": 6207,
      "Ġborrow</w>": 6208,
      "Ġdeb": 6209,
      "Ġfurn": 6210,
      "ĠTel": 6211,
      "Ġconvict</w>": 6212,
      "Ġlecture</w>": 6213,
      "Ġvisible</w>": 6214,
      "Ġequation</w>": 6215,
      "ĠArab</w>": 6216,
      "igan</w>": 6217,
      "Ġprincess</w>": 6218,
      "ĠFestival</w>": 6219,
      "Ġk</w>": 6220,
      "Ġideal</w>": 6221,
      "Ġtoe</w>": 6222,
      "coho": 6223,
      "ska</w>": 6224,
      "Ġnuclear</w>": 6225,
      "Ġchamber</w>": 6226,
      "GE</w>": 6227,
      "anne</w>": 6228,
      "utor</w>": 6229,
      "Ġstrict</w>": 6230,
      "Ġtrance</w>": 6231,
      "Ġwick</w>": 6232,
      "Ġdump</w>": 6233,
      "ĠBell</w>": 6234,
      "Ġmonkey</w>": 6235,
      "Ġcommit</w>": 6236,
      "Ġcircumstance</w>": 6237,
      "Ġ~</w>": 6238,
      "Ġsequent</w>": 6239,
      "Ġdisci": 6240,
      "Ġunique</w>": 6241,
      "ĠAtlantic</w>": 6242,
      "ĠCivil</w>": 6243,
      "ĠEth": 6244,
      "Ġpoly</w>": 6245,
      "Ġjud": 6246,
      "Ġcheek</w>": 6247,
      "aret</w>": 6248,
      "each</w>": 6249,
      "Ġcore</w>": 6250,
      "Ġsmooth</w>": 6251,
      "chestra</w>": 6252,
      "ĠNE": 6253,
      "ĠIm": 6254,
      "ĠMO": 6255,
      "off</w>": 6256,
      "Ġlean</w>": 6257,
      "Ġmuscle</w>": 6258,
      "Ġok</w>": 6259,
      "ĠSeven</w>": 6260,
      "Ġdeck</w>": 6261,
      "servative</w>": 6262,
      "Ġembar": 6263,
      "wi</w>": 6264,
      "unnel</w>": 6265,
      "Ġscheme</w>": 6266,
      "ĠGR": 6267,
      "easur</w>": 6268,
      "han</w>": 6269,
      "ĠTok": 6270,
      "ax": 6271,
      "ĠâĻ«</w>": 6272,
      "Ġfare</w>": 6273,
      "Ġant": 6274,
      "Ġconvert</w>": 6275,
      "lah</w>": 6276,
      "ug</w>": 6277,
      "ema</w>": 6278,
      "then</w>": 6279,
      "ĠPacific</w>": 6280,
      "ĠDuke</w>": 6281,
      "uation</w>": 6282,
      "Ġbitter</w>": 6283,
      "ĠGO": 6284,
      "ĠMun": 6285,
      "Ġnominated</w>": 6286,
      "ĠCross</w>": 6287,
      "aki</w>": 6288,
      "ik</w>": 6289,
      "Ġmagnet</w>": 6290,
      "Ġanalysis</w>": 6291,
      "ry": 6292,
      "ĠOl": 6293,
      "ĠSA": 6294,
      "Ġlaught</w>": 6295,
      "Ġbang</w>": 6296,
      "Ġromant</w>": 6297,
      "Ġconqu": 6298,
      "Ġnoble</w>": 6299,
      "Ġbrilliant</w>": 6300,
      "Ġsufficient</w>": 6301,
      "Ġexclaim</w>": 6302,
      "ĠFrancisco</w>": 6303,
      "Ġedition</w>": 6304,
      "ĠJersey</w>": 6305,
      "Ġmirror</w>": 6306,
      "Ġstable</w>": 6307,
      "Ġcoal</w>": 6308,
      "ĠRun</w>": 6309,
      "Ġutter</w>": 6310,
      "ĠDis</w>": 6311,
      "eli</w>": 6312,
      "iform</w>": 6313,
      "Ġconsult</w>": 6314,
      "Ġorgan": 6315,
      "ĠKNOW</w>": 6316,
      "ĠCle": 6317,
      "ĠDON</w>": 6318,
      "ector</w>": 6319,
      "Ġbat</w>": 6320,
      "liance</w>": 6321,
      "ĠEnter</w>": 6322,
      "ĠTam": 6323,
      "ĠAbs": 6324,
      "uri": 6325,
      "ĠKore</w>": 6326,
      "Ġmechanic</w>": 6327,
      "Ġbug</w>": 6328,
      "ĠLieutenant</w>": 6329,
      "ĠBE": 6330,
      "ĠOffice</w>": 6331,
      "ĠFar": 6332,
      "Ġslept</w>": 6333,
      "ĠProb</w>": 6334,
      "ĠRegion</w>": 6335,
      "ĠPakistan</w>": 6336,
      "ĠSoon</w>": 6337,
      "Ġcart": 6338,
      "ĠOper": 6339,
      "Ġdefense</w>": 6340,
      "HL</w>": 6341,
      "Ġsh</w>": 6342,
      "Ġbabie</w>": 6343,
      "ĠBoard</w>": 6344,
      "Ġinqu": 6345,
      "ĠFarm</w>": 6346,
      "Ġbuddy</w>": 6347,
      "Ġreject</w>": 6348,
      "Ġmol": 6349,
      "Ġviolent</w>": 6350,
      "Ġdraft</w>": 6351,
      "Ġappropriate</w>": 6352,
      "ĠKansa</w>": 6353,
      "esse</w>": 6354,
      "ĠPrize</w>": 6355,
      "Ġproved</w>": 6356,
      "nic</w>": 6357,
      "Ġlog</w>": 6358,
      "Ġswing</w>": 6359,
      "ckey</w>": 6360,
      "ĠHard</w>": 6361,
      "ĠOk": 6362,
      "ĠGoo": 6363,
      "sham</w>": 6364,
      "ĠÂ£</w>": 6365,
      "athan</w>": 6366,
      "Ġinterrupt</w>": 6367,
      "Ġgage</w>": 6368,
      "Ġlib": 6369,
      "sel</w>": 6370,
      "Ġassume</w>": 6371,
      "Ġerror</w>": 6372,
      "Ġatom</w>": 6373,
      "Ġintern</w>": 6374,
      "FF</w>": 6375,
      "Ġray</w>": 6376,
      "ĠBrian</w>": 6377,
      "ĠMatthew</w>": 6378,
      "Ġcorrespond</w>": 6379,
      "und</w>": 6380,
      "Ġsession</w>": 6381,
      "Ġadvert": 6382,
      "ĠTotal</w>": 6383,
      "ĠTO": 6384,
      "aka</w>": 6385,
      "ĠNavy</w>": 6386,
      "dor</w>": 6387,
      "Ġsample</w>": 6388,
      "ĠJr</w>": 6389,
      "ĠAren</w>": 6390,
      "gnant</w>": 6391,
      "eng": 6392,
      "Ġpen</w>": 6393,
      "lause</w>": 6394,
      "Ġblu": 6395,
      "Ġmel": 6396,
      "Ġridiculous</w>": 6397,
      "ĠPow</w>": 6398,
      "evin</w>": 6399,
      "Ġfestival</w>": 6400,
      "Ġstroke</w>": 6401,
      "ĠAk": 6402,
      "Ġhorrible</w>": 6403,
      "Ġanxious</w>": 6404,
      "ĠBerlin</w>": 6405,
      "gratulation</w>": 6406,
      "ronger</w>": 6407,
      "Ġspir</w>": 6408,
      "ĠRadio</w>": 6409,
      "ori</w>": 6410,
      "Ġbishop</w>": 6411,
      "Ġut": 6412,
      "Ġwor</w>": 6413,
      "scent</w>": 6414,
      "NE</w>": 6415,
      "yd</w>": 6416,
      "ĠÅį</w>": 6417,
      "Ġmyst": 6418,
      "Ġscr": 6419,
      "Ġconvinc</w>": 6420,
      "Ġil</w>": 6421,
      "Ġvin": 6422,
      "Ġrope</w>": 6423,
      "ĠMum</w>": 6424,
      "Ġapproximate</w>": 6425,
      "rison</w>": 6426,
      "Ġbeg</w>": 6427,
      "eting</w>": 6428,
      "xon</w>": 6429,
      "ĠWanna</w>": 6430,
      "ĠKong</w>": 6431,
      "Ġdecade</w>": 6432,
      "ĠWITH</w>": 6433,
      "Ġmanufactur</w>": 6434,
      "Ġmut": 6435,
      "ĠHind": 6436,
      "Ġcomposer</w>": 6437,
      "Ġance": 6438,
      "Ġswimm</w>": 6439,
      "ĠHeal</w>": 6440,
      "Ġcond": 6441,
      "Ġsteel</w>": 6442,
      "Ġstance</w>": 6443,
      "Ġtress</w>": 6444,
      "Ġug</w>": 6445,
      "Ġstole</w>": 6446,
      "ĠBible</w>": 6447,
      "Ġsuff</w>": 6448,
      "Ġsimp": 6449,
      "Ġpole</w>": 6450,
      "ĠHaw": 6451,
      "ID": 6452,
      "ĠBull</w>": 6453,
      "ĠSusan</w>": 6454,
      "Ġatmo</w>": 6455,
      "ĠStephen</w>": 6456,
      "eus</w>": 6457,
      "yst": 6458,
      "Ġlief</w>": 6459,
      "Ġdistribution</w>": 6460,
      "Ġthor": 6461,
      "Ġbid</w>": 6462,
      "lant</w>": 6463,
      "ĠInd": 6464,
      "Ġhm</w>": 6465,
      "Ġfaint</w>": 6466,
      "Ġpermanent</w>": 6467,
      "ĠSupp": 6468,
      "ont</w>": 6469,
      "ese</w>": 6470,
      "Ġbeast</w>": 6471,
      "ague</w>": 6472,
      "ĠOrder</w>": 6473,
      "Ġassociation</w>": 6474,
      "Ġalcoho": 6475,
      "Ġfigur</w>": 6476,
      "Ġescap</w>": 6477,
      "ĠStart</w>": 6478,
      "Ġcruel</w>": 6479,
      "ĠOH</w>": 6480,
      "ĠKy": 6481,
      "ĠOlymp</w>": 6482,
      "Ġguar": 6483,
      "ONE</w>": 6484,
      "ĠBang": 6485,
      "Ġtrie</w>": 6486,
      "Ġaccur": 6487,
      "gre": 6488,
      "ĠLe</w>": 6489,
      "tto</w>": 6490,
      "Ġalle": 6491,
      "Ġspite</w>": 6492,
      "Ġarm": 6493,
      "ĠAsh": 6494,
      "ĠHarv": 6495,
      "Ġbalance</w>": 6496,
      "Ġgraduate</w>": 6497,
      "ĠGeorgia</w>": 6498,
      "ĠEl</w>": 6499,
      "ĠUr": 6500,
      "Ġstrain</w>": 6501,
      "Ġdemocr": 6502,
      "ĠGeo</w>": 6503,
      "Ġintroduce</w>": 6504,
      "ĠFa": 6505,
      "ĠTaylor</w>": 6506,
      "vity</w>": 6507,
      "ĠNic": 6508,
      "ĠGuard</w>": 6509,
      "erb": 6510,
      "dif": 6511,
      "Ġelephant</w>": 6512,
      "ati</w>": 6513,
      "ĠTrust</w>": 6514,
      "fle</w>": 6515,
      "Ġbreed</w>": 6516,
      "ĠBern": 6517,
      "ĠMarie</w>": 6518,
      "rade</w>": 6519,
      "ĠMem": 6520,
      "ĠRA": 6521,
      "Ġinsurance</w>": 6522,
      "Ġmill</w>": 6523,
      "ĠÃ¦</w>": 6524,
      "ĠSanta</w>": 6525,
      "ne": 6526,
      "deri": 6527,
      "ger": 6528,
      "Ġtrap</w>": 6529,
      "ĠLO": 6530,
      "Ġembarrass</w>": 6531,
      "Ġmolec": 6532,
      "Ġliterature</w>": 6533,
      "irate</w>": 6534,
      "Ġlat</w>": 6535,
      "Ġscra": 6536,
      "ĠEric</w>": 6537,
      "ĠÃ§</w>": 6538,
      "Ġpride</w>": 6539,
      "Ġpromot</w>": 6540,
      "ĠRou": 6541,
      "ĠHolly</w>": 6542,
      "inal</w>": 6543,
      "ĠLy": 6544,
      "..": 6545,
      "Ġboil</w>": 6546,
      "ĠArt": 6547,
      "andom</w>": 6548,
      "ĠNether</w>": 6549,
      "ĠBroad</w>": 6550,
      "Ġautom": 6551,
      "ĠVictoria</w>": 6552,
      "ĠTwent</w>": 6553,
      "stain</w>": 6554,
      "Ġpuzz": 6555,
      "ĠDNA</w>": 6556,
      "Ġbride</w>": 6557,
      "ĠEh</w>": 6558,
      "Ġleaf</w>": 6559,
      "Ġatic</w>": 6560,
      "Ġinstall</w>": 6561,
      "ĠTim": 6562,
      "Ġcoin</w>": 6563,
      "Ġemergency</w>": 6564,
      "Ġera</w>": 6565,
      "ĠWI": 6566,
      "Ġzone</w>": 6567,
      "ĠSweet</w>": 6568,
      "coln</w>": 6569,
      "Ġstronger</w>": 6570,
      "ĠLad": 6571,
      "Ġbubble</w>": 6572,
      "Ġbass</w>": 6573,
      "war": 6574,
      "Ġglasse</w>": 6575,
      "ĠEc": 6576,
      "rait</w>": 6577,
      "Ġdat</w>": 6578,
      "ĠTai": 6579,
      "Ġplot</w>": 6580,
      "Ġtopic</w>": 6581,
      "Ġchocolate</w>": 6582,
      "ĠSong</w>": 6583,
      "Ġvilla": 6584,
      "Ġobserved</w>": 6585,
      "Ġwore</w>": 6586,
      "Ġhir</w>": 6587,
      "ĠDave</w>": 6588,
      "Ġoperate</w>": 6589,
      "Ġstomach</w>": 6590,
      "ience</w>": 6591,
      "istle</w>": 6592,
      "Ġeli": 6593,
      "ĠBi": 6594,
      "Ġwitch</w>": 6595,
      "Ġski</w>": 6596,
      "ĠHot</w>": 6597,
      "Ġspo": 6598,
      "Ġconstitution</w>": 6599,
      "Ġconfid": 6600,
      "ĠMid</w>": 6601,
      "Ġtrace</w>": 6602,
      "Ġenemie</w>": 6603,
      "Ġuniform</w>": 6604,
      "rot</w>": 6605,
      "ĠThur": 6606,
      "Ġweb</w>": 6607,
      "Ġmiser</w>": 6608,
      "ĠBlo": 6609,
      "Ġbike</w>": 6610,
      "ĠCAN</w>": 6611,
      "Ġsweat</w>": 6612,
      "ĠFederal</w>": 6613,
      "ĠThu</w>": 6614,
      "Ġdoll</w>": 6615,
      "ĠAlf": 6616,
      "Ġauthoritie</w>": 6617,
      "Ġliteral</w>": 6618,
      "ential</w>": 6619,
      "Ġshook</w>": 6620,
      "ĠLyn": 6621,
      "usive</w>": 6622,
      "Ġwho": 6623,
      "ĠAdv": 6624,
      "Ġtransfer</w>": 6625,
      "Ġpie</w>": 6626,
      "Ġbel": 6627,
      "ĠInf": 6628,
      "Ġelev": 6629,
      "ĠSU": 6630,
      "Ġwoke</w>": 6631,
      "ĠCin": 6632,
      "ĠBetter</w>": 6633,
      "Ġmortal</w>": 6634,
      "orney</w>": 6635,
      "Ġappli</w>": 6636,
      "Ġcopie</w>": 6637,
      "Ġdude</w>": 6638,
      "ĠMexican</w>": 6639,
      "ĠDesp": 6640,
      "Ġnumerous</w>": 6641,
      "eague</w>": 6642,
      "dure</w>": 6643,
      "Ġdim": 6644,
      "Ġpregnant</w>": 6645,
      "ĠQuick</w>": 6646,
      "ological</w>": 6647,
      "Ġcomic</w>": 6648,
      "ĠArgent": 6649,
      "oti": 6650,
      "Ġtwist</w>": 6651,
      "Ġsurgery</w>": 6652,
      "Ġå": 6653,
      "Ġsympath": 6654,
      "Ġexperienc</w>": 6655,
      "Ġcarp": 6656,
      "PP": 6657,
      "ĠLincoln</w>": 6658,
      "Ġcheat</w>": 6659,
      "Ġpale</w>": 6660,
      "ĠTechn": 6661,
      "Ġgray</w>": 6662,
      "Ġreckon</w>": 6663,
      "Ġcombination</w>": 6664,
      "ĠVictor</w>": 6665,
      "sch": 6666,
      "Ġban": 6667,
      "Ġdedic": 6668,
      "ĠWay</w>": 6669,
      "Ġmarine</w>": 6670,
      "inite</w>": 6671,
      "ritual</w>": 6672,
      "rist</w>": 6673,
      "adel": 6674,
      "Ġphrase</w>": 6675,
      "pse</w>": 6676,
      "Ġcomplicated</w>": 6677,
      "ĠLeon": 6678,
      "Ġpermission</w>": 6679,
      "ift</w>": 6680,
      "ĠMar</w>": 6681,
      "icit</w>": 6682,
      "Ġestim": 6683,
      "iana</w>": 6684,
      "Ġfuneral</w>": 6685,
      "ĠBridge</w>": 6686,
      "Ġinhabitant</w>": 6687,
      "Ġgrey</w>": 6688,
      "ĠARE</w>": 6689,
      "Ġtwin</w>": 6690,
      "ĠSoph": 6691,
      "Ġagri</w>": 6692,
      "ĠAssembly</w>": 6693,
      "Ġpity</w>": 6694,
      "ĠHong</w>": 6695,
      "Ġprotein</w>": 6696,
      "Ġexecutive</w>": 6697,
      "Ġtheatre</w>": 6698,
      "ĠRevolution</w>": 6699,
      "Ġspare</w>": 6700,
      "agle</w>": 6701,
      "Ġcreation</w>": 6702,
      "Ġversal</w>": 6703,
      "Ġyell</w>": 6704,
      "ĠWoman</w>": 6705,
      "Ġcombin</w>": 6706,
      "Ġassum</w>": 6707,
      "Ġexplan": 6708,
      "ĠCamp</w>": 6709,
      "Ġalternative</w>": 6710,
      "van</w>": 6711,
      "osaur</w>": 6712,
      "Ġmood</w>": 6713,
      "olen</w>": 6714,
      "amin</w>": 6715,
      "ĠSO</w>": 6716,
      "cip": 6717,
      "ĠHung": 6718,
      "Ġspon": 6719,
      "ademic</w>": 6720,
      "Ġcontinent</w>": 6721,
      "ĠAsk</w>": 6722,
      "ĠVin": 6723,
      "Ġmayor</w>": 6724,
      "ĠAL": 6725,
      "etnam</w>": 6726,
      "Ġleap</w>": 6727,
      "Ġultimate</w>": 6728,
      "ĠFla": 6729,
      "Ġtreasure</w>": 6730,
      "Ġof": 6731,
      "ĠThough</w>": 6732,
      "Ġsurvey</w>": 6733,
      "sday</w>": 6734,
      "Ġglobal</w>": 6735,
      "ĠBetty</w>": 6736,
      "Ġill": 6737,
      "omer</w>": 6738,
      "Ġliber": 6739,
      "ĠRaj": 6740,
      "Ġlt</w>": 6741,
      "uma</w>": 6742,
      "ĠHell</w>": 6743,
      "Ġanger</w>": 6744,
      "Ġmust": 6745,
      "ĠAustria</w>": 6746,
      "Ġvariable</w>": 6747,
      "ec</w>": 6748,
      "Ġregret</w>": 6749,
      "Ġcand": 6750,
      "Ġcutt</w>": 6751,
      "Ġrang</w>": 6752,
      "eel</w>": 6753,
      "Ġpers": 6754,
      "ivity</w>": 6755,
      "he</w>": 6756,
      "ĠShake</w>": 6757,
      "ĠPerson</w>": 6758,
      "Ġwhenever</w>": 6759,
      "Ġeager</w>": 6760,
      "ĠHand</w>": 6761,
      "ĠNone</w>": 6762,
      "Ġsquar</w>": 6763,
      "irteen</w>": 6764,
      "Ġhydro</w>": 6765,
      "Ġcarriage</w>": 6766,
      "Ġswim</w>": 6767,
      "Ġpan</w>": 6768,
      "ĠWat": 6769,
      "ĠBlood</w>": 6770,
      "ĠForest</w>": 6771,
      "Ġcyc": 6772,
      "ĠMot": 6773,
      "Ġjeal</w>": 6774,
      "ĠSpecial</w>": 6775,
      "ĠAbsolute</w>": 6776,
      "Ġvia</w>": 6777,
      "ĠKevin</w>": 6778,
      "ĠFind</w>": 6779,
      "Ġconsum": 6780,
      "rior</w>": 6781,
      "Ġnest</w>": 6782,
      "Ġsur</w>": 6783,
      "ĠRen": 6784,
      "Ġlegend</w>": 6785,
      "Ġshap</w>": 6786,
      "Ġhous</w>": 6787,
      "Ġplastic</w>": 6788,
      "Ġmono</w>": 6789,
      "ĠVietnam</w>": 6790,
      "Ġcontem": 6791,
      "Ġconfidence</w>": 6792,
      "phia</w>": 6793,
      "ux</w>": 6794,
      "ĠOfficer</w>": 6795,
      "Ġinch</w>": 6796,
      "Ġtrem": 6797,
      "Ġnail</w>": 6798,
      "Ġdecor": 6799,
      "Ġical</w>": 6800,
      "ĠLaura</w>": 6801,
      "Ġmouse</w>": 6802,
      "ĠDoesn</w>": 6803,
      "ĠÂ°</w>": 6804,
      "lyn</w>": 6805,
      "erre</w>": 6806,
      "Ġsevent</w>": 6807,
      "Ġgene</w>": 6808,
      "TE</w>": 6809,
      "ssa</w>": 6810,
      "Ġsplend": 6811,
      "stin</w>": 6812,
      "azz</w>": 6813,
      "ĠJason</w>": 6814,
      "ĠCheck</w>": 6815,
      "ĠForget</w>": 6816,
      "Ġcounter</w>": 6817,
      "Ġpin</w>": 6818,
      "Ġfac</w>": 6819,
      "Ġtract</w>": 6820,
      "ĠChildren</w>": 6821,
      "encies</w>": 6822,
      "Ġdescription</w>": 6823,
      "Ġeighteen</w>": 6824,
      "ĠStone</w>": 6825,
      "ancer</w>": 6826,
      "Ġemer": 6827,
      "Ġidentity</w>": 6828,
      "wich</w>": 6829,
      "Ġvisual</w>": 6830,
      "ĠBio</w>": 6831,
      "olitan</w>": 6832,
      "Ġrabbit</w>": 6833,
      "Ġsoci": 6834,
      "ĠHad</w>": 6835,
      "ĠKid</w>": 6836,
      "Ġoperat</w>": 6837,
      "ĠRoss</w>": 6838,
      "achel</w>": 6839,
      "itty</w>": 6840,
      "ĠSerie</w>": 6841,
      "ĠAge</w>": 6842,
      "Ġfeather</w>": 6843,
      "zard</w>": 6844,
      "ĠTim</w>": 6845,
      "iture</w>": 6846,
      "ĠBudd": 6847,
      "OUT</w>": 6848,
      "Ġprincipal</w>": 6849,
      "Ġà¸": 6850,
      "ĠContin": 6851,
      "ĠFamily</w>": 6852,
      "Ġcapacity</w>": 6853,
      "Ġason</w>": 6854,
      "Ġcompound</w>": 6855,
      "ĠMargaret</w>": 6856,
      "Ġexplanation</w>": 6857,
      "ĠMmm</w>": 6858,
      "Ġdramatic</w>": 6859,
      "ĠHuman</w>": 6860,
      "Ġfat": 6861,
      "ĠTru": 6862,
      "ĠCart</w>": 6863,
      "ĠÄĩ</w>": 6864,
      "anch": 6865,
      "ĠPope</w>": 6866,
      "mmer</w>": 6867,
      "ĠPr": 6868,
      "Ġdestruct</w>": 6869,
      "Ġcricket</w>": 6870,
      "Ġmart": 6871,
      "Ġcave</w>": 6872,
      "usett</w>": 6873,
      "ĠSara</w>": 6874,
      "Ġsect</w>": 6875,
      "Ġbatter</w>": 6876,
      "Ġoccupi</w>": 6877,
      "ĠOcean</w>": 6878,
      "minent</w>": 6879,
      "Ġgli": 6880,
      "ĠAS": 6881,
      "ĠAnn</w>": 6882,
      "achusett</w>": 6883,
      "ayne</w>": 6884,
      "ege</w>": 6885,
      "ĠTak": 6886,
      "ĠRon": 6887,
      "ĠCare</w>": 6888,
      "ĠJon": 6889,
      "ĠKir": 6890,
      "Ġdespite</w>": 6891,
      "ĠMir": 6892,
      "ĠUN</w>": 6893,
      "ĠNazi</w>": 6894,
      "Ġsau": 6895,
      "Ġsecure</w>": 6896,
      "ddam": 6897,
      "ĠCON": 6898,
      "ci</w>": 6899,
      "ingham</w>": 6900,
      "Ġprotest</w>": 6901,
      "ĠSwed</w>": 6902,
      "ĠBir": 6903,
      "Ġchapter</w>": 6904,
      "Ġtube</w>": 6905,
      "orithm</w>": 6906,
      "Ġac</w>": 6907,
      "Ġther": 6908,
      "ĠMinn": 6909,
      "Ġdesperate</w>": 6910,
      "ĠAR": 6911,
      "ĠIS": 6912,
      "ĠPretty</w>": 6913,
      "sual</w>": 6914,
      "ĠRyan</w>": 6915,
      "ĠFall</w>": 6916,
      "Ġsmok</w>": 6917,
      "Ġveget": 6918,
      "adelphia</w>": 6919,
      "Ġdefinition</w>": 6920,
      "Ġdriven</w>": 6921,
      "Ġgenus</w>": 6922,
      "ĠVan</w>": 6923,
      "Ġdeli": 6924,
      "ĠColumbia</w>": 6925,
      "Ġparish</w>": 6926,
      "Ġrandom</w>": 6927,
      "OULD</w>": 6928,
      "ĠSab": 6929,
      "Ġprocedure</w>": 6930,
      "are": 6931,
      "ez": 6932,
      "ĠPhil</w>": 6933,
      "Ġinjur</w>": 6934,
      "ĠDisney</w>": 6935,
      "ĠCarl</w>": 6936,
      "ĠCA": 6937,
      "Ġsequence</w>": 6938,
      "ĠNat": 6939,
      "andal</w>": 6940,
      "Ġdrum</w>": 6941,
      "Ġaccomplish</w>": 6942,
      "Ġconsequence</w>": 6943,
      "ĠWint</w>": 6944,
      "Ġevolution</w>": 6945,
      "Ġboo": 6946,
      "itz</w>": 6947,
      "illi</w>": 6948,
      "ĠJustice</w>": 6949,
      "ĠOhio</w>": 6950,
      "Ġiniti": 6951,
      "IR": 6952,
      "Ġthrill</w>": 6953,
      "Ġbark</w>": 6954,
      "ĠWel": 6955,
      "Ġcenturie</w>": 6956,
      "Ġhi</w>": 6957,
      "ung": 6958,
      "ĠMassachusett</w>": 6959,
      "avi": 6960,
      "ĠMul": 6961,
      "Ġgrab</w>": 6962,
      "Ġissu": 6963,
      "Ġnecessarily</w>": 6964,
      "Ġvast</w>": 6965,
      "labor": 6966,
      "Ġvali": 6967,
      "ĠOxford</w>": 6968,
      "tom</w>": 6969,
      "Ġdistinguish</w>": 6970,
      "ĠPhiladelphia</w>": 6971,
      "ygen</w>": 6972,
      "Ġbranche</w>": 6973,
      "ĠYEA": 6974,
      "ĠFord</w>": 6975,
      "eter</w>": 6976,
      "ĠWilson</w>": 6977,
      "Ġdimension</w>": 6978,
      "mony</w>": 6979,
      "ilet</w>": 6980,
      "Ġchip</w>": 6981,
      "Ġspiritual</w>": 6982,
      "IA</w>": 6983,
      "men</w>": 6984,
      "ĠKath": 6985,
      "ĠLaw": 6986,
      "actic</w>": 6987,
      "ĠUs</w>": 6988,
      "ĠLow</w>": 6989,
      "OL": 6990,
      "Ġscript</w>": 6991,
      "ĠJUST</w>": 6992,
      "Ġrobot</w>": 6993,
      "Ġcrap</w>": 6994,
      "Ġalien</w>": 6995,
      "Ġintelligence</w>": 6996,
      "wen</w>": 6997,
      "Ġloy</w>": 6998,
      "burgh</w>": 6999,
      "ĠNu": 7000,
      "Ġrear</w>": 7001,
      "ĠMiss": 7002,
      "Ġdam</w>": 7003,
      "Ġvocal</w>": 7004,
      "raine</w>": 7005,
      "ĠMember</w>": 7006,
      "oof</w>": 7007,
      "Ġmerg</w>": 7008,
      "eed</w>": 7009,
      "ĠDi</w>": 7010,
      "Ġvalu": 7011,
      "ĠMichigan</w>": 7012,
      "Ġproposal</w>": 7013,
      "olin</w>": 7014,
      "ckin</w>": 7015,
      "ĠHeaven</w>": 7016,
      "Ġacquir</w>": 7017,
      "ĠGordon</w>": 7018,
      "Ġstolen</w>": 7019,
      "Ġhockey</w>": 7020,
      "Ġefficient</w>": 7021,
      "Ġdepth</w>": 7022,
      "ĠHang</w>": 7023,
      "ĠPublic</w>": 7024,
      "Ġbegg</w>": 7025,
      "Ġaccus</w>": 7026,
      "ged</w>": 7027,
      "Ġrival</w>": 7028,
      "ĠOli": 7029,
      "ĠSenator</w>": 7030,
      "Ġracing</w>": 7031,
      "Ġelimin": 7032,
      "pture</w>": 7033,
      "ĠSupreme</w>": 7034,
      "ĠKnow</w>": 7035,
      "Ġsink</w>": 7036,
      "Ġchemist</w>": 7037,
      "Ġreign</w>": 7038,
      "Ġworthy</w>": 7039,
      "lified</w>": 7040,
      "ĠPoland</w>": 7041,
      "Ġalgorithm</w>": 7042,
      "ĠHope</w>": 7043,
      "ĠDep": 7044,
      "Ġpeasant</w>": 7045,
      "Ġshri": 7046,
      "ĠAri": 7047,
      "ĠEll": 7048,
      "ĠSystem</w>": 7049,
      "Ġcolleague</w>": 7050,
      "Ġris</w>": 7051,
      "Ġshopping</w>": 7052,
      "Ġvaluable</w>": 7053,
      "ĠLive</w>": 7054,
      "Ġgenetic</w>": 7055,
      "oth</w>": 7056,
      "ĠRick</w>": 7057,
      "ĠMayor</w>": 7058,
      "Ġinjury</w>": 7059,
      "Ġmeasur</w>": 7060,
      "ĠKent": 7061,
      "Ġtest": 7062,
      "ensity</w>": 7063,
      "ĠCoast</w>": 7064,
      "ĠSteven</w>": 7065,
      "Ġfuse</w>": 7066,
      "pertie</w>": 7067,
      "Ġsupper</w>": 7068,
      "rum</w>": 7069,
      "ĠPost</w>": 7070,
      "ĠWonder</w>": 7071,
      "ĠRel": 7072,
      "si</w>": 7073,
      "alla</w>": 7074,
      "Ġconclusion</w>": 7075,
      "Ġrum": 7076,
      "Ġreduce</w>": 7077,
      "ĠWon</w>": 7078,
      "ĠPoint</w>": 7079,
      "Ġhorror</w>": 7080,
      "ni</w>": 7081,
      "eadow</w>": 7082,
      "ulf</w>": 7083,
      "Ġtrag": 7084,
      "ĠElect": 7085,
      "Ġadministration</w>": 7086,
      "Ġdome": 7087,
      "Ġlim": 7088,
      "ĠTomorrow</w>": 7089,
      "ĠPeace</w>": 7090,
      "Ġcollap": 7091,
      "ĠAnna</w>": 7092,
      "Ġissued</w>": 7093,
      "Ġawe</w>": 7094,
      "ĠCz": 7095,
      "ĠBC</w>": 7096,
      "lov": 7097,
      "ĠCarlo</w>": 7098,
      "ĠPolish</w>": 7099,
      "ĠCorpor": 7100,
      "Ġwast</w>": 7101,
      "Ġmode</w>": 7102,
      "Ġsacrifice</w>": 7103,
      "aron</w>": 7104,
      "Ġwhale</w>": 7105,
      "anch</w>": 7106,
      "Ġsup": 7107,
      "Ġfleet</w>": 7108,
      "Ġmassive</w>": 7109,
      "ĠSister</w>": 7110,
      "Ġorbit</w>": 7111,
      "ĠWest": 7112,
      "ĠCat": 7113,
      "Ġrad": 7114,
      "ĠFriend</w>": 7115,
      "ran": 7116,
      "Ġfed</w>": 7117,
      "unt": 7118,
      "ĠBad</w>": 7119,
      "Ġdisturb</w>": 7120,
      "Ġnesse</w>": 7121,
      "Ġsecretary</w>": 7122,
      "Ġrhy": 7123,
      "ĠCamb": 7124,
      "Ġhear": 7125,
      "ull</w>": 7126,
      "alo</w>": 7127,
      "ĠÃ´</w>": 7128,
      "Ġlett</w>": 7129,
      "ĠMit": 7130,
      "ĠBear</w>": 7131,
      "ĠClark</w>": 7132,
      "Ġparliament</w>": 7133,
      "Ġfence</w>": 7134,
      "Ġphase</w>": 7135,
      "Ġfrequ": 7136,
      "ĠUP</w>": 7137,
      "Ġimplement</w>": 7138,
      "bl</w>": 7139,
      "ĠBBC</w>": 7140,
      "ĠNet</w>": 7141,
      "ĠChap": 7142,
      "Ġstrip</w>": 7143,
      "inary</w>": 7144,
      "Ġmask</w>": 7145,
      "Ġbust</w>": 7146,
      "ĠAli</w>": 7147,
      "ĠPot": 7148,
      "ddamn</w>": 7149,
      "ext</w>": 7150,
      "Ġlat": 7151,
      "Ġcurve</w>": 7152,
      "Ġmen": 7153,
      "Ġdragon</w>": 7154,
      "ĠIra": 7155,
      "ĠâĶ": 7156,
      "ĠTop</w>": 7157,
      "Ġworn</w>": 7158,
      "Ġurban</w>": 7159,
      "sw": 7160,
      "Ġlamp</w>": 7161,
      "urd</w>": 7162,
      "Ġobey</w>": 7163,
      "Ġtunnel</w>": 7164,
      "Ġtoilet</w>": 7165,
      "ĠAdd": 7166,
      "ĠTHEY</w>": 7167,
      "ĠTokyo</w>": 7168,
      "Ġslip</w>": 7169,
      "Ġsang</w>": 7170,
      "Ġparation</w>": 7171,
      "Ġiso</w>": 7172,
      "ĠCop": 7173,
      "uto</w>": 7174,
      "ĠOUT</w>": 7175,
      "lum</w>": 7176,
      "Ġdiagn": 7177,
      "ĠPhilippine</w>": 7178,
      "ĠNumb</w>": 7179,
      "Ġnegoti": 7180,
      "Ġadmitt</w>": 7181,
      "Ġdawn</w>": 7182,
      "Ġterrif": 7183,
      "Ġfreak</w>": 7184,
      "ĠChuck</w>": 7185,
      "oot</w>": 7186,
      "Ġphil": 7187,
      "phic</w>": 7188,
      "Ġevident</w>": 7189,
      "ĠGU": 7190,
      "CH": 7191,
      "sal</w>": 7192,
      "ĠMama</w>": 7193,
      "bber</w>": 7194,
      "Ġbury</w>": 7195,
      "ĠFort</w>": 7196,
      "Ġdissement</w>": 7197,
      "ĠQ</w>": 7198,
      "ĠClo": 7199,
      "Ġassur</w>": 7200,
      "Ġpossibility</w>": 7201,
      "Ġworm</w>": 7202,
      "ĠGrace</w>": 7203,
      "eli": 7204,
      "Ġsustain</w>": 7205,
      "ĠThursday</w>": 7206,
      "ĠConstitution</w>": 7207,
      "ĠSid": 7208,
      "ĠPin": 7209,
      "ek": 7210,
      "vily</w>": 7211,
      "amic</w>": 7212,
      "ĠPlace</w>": 7213,
      "Ġã": 7214,
      "ĠTour</w>": 7215,
      "Ġmath</w>": 7216,
      "Ġoppos</w>": 7217,
      "osis</w>": 7218,
      "Ġresi": 7219,
      "Ġparticle</w>": 7220,
      "ĠLAUGH</w>": 7221,
      "Ġtrunk</w>": 7222,
      "eric</w>": 7223,
      "OOK</w>": 7224,
      "ev</w>": 7225,
      "ĠHan": 7226,
      "Ġmad": 7227,
      "Ġcomponent</w>": 7228,
      "Ġabsor": 7229,
      "ĠAnthon</w>": 7230,
      "Ġcommunitie</w>": 7231,
      "ĠHospital</w>": 7232,
      "ĠCorn</w>": 7233,
      "ĠGab": 7234,
      "ĠUt": 7235,
      "Ġcrush</w>": 7236,
      "Ġgasp</w>": 7237,
      "ĠTHERE</w>": 7238,
      "Ġnomination</w>": 7239,
      "ĠNap": 7240,
      "ĠGET</w>": 7241,
      "asm</w>": 7242,
      "Ġtrad</w>": 7243,
      "esday</w>": 7244,
      "ĠClear</w>": 7245,
      "ĠMs</w>": 7246,
      "UCK</w>": 7247,
      "ĠArab": 7248,
      "ĠMosc": 7249,
      "Ġkitt": 7250,
      "ĠBobby</w>": 7251,
      "ĠLewi</w>": 7252,
      "Ġconven": 7253,
      "Ġpanel</w>": 7254,
      "Ġsar": 7255,
      "ĠAst": 7256,
      "Ġsolo</w>": 7257,
      "bit": 7258,
      "ĠBUT</w>": 7259,
      "Ġroar</w>": 7260,
      "ĠCastle</w>": 7261,
      "ĠKri": 7262,
      "Ġdiamond</w>": 7263,
      "Ġamp": 7264,
      "gate</w>": 7265,
      "Ġcolon": 7266,
      "ellect</w>": 7267,
      "Ġautomatic</w>": 7268,
      "ĠHERE</w>": 7269,
      "ĠThing</w>": 7270,
      "ĠAL</w>": 7271,
      "ĠGh": 7272,
      "ĠGary</w>": 7273,
      "ĠSigh</w>": 7274,
      "Ġvel": 7275,
      "ppi</w>": 7276,
      "Ġsoup</w>": 7277,
      "ĠJake</w>": 7278,
      "Ġpersu": 7279,
      "Ġincrea": 7280,
      "Ġfund": 7281,
      "Ġreply</w>": 7282,
      "Ġfitt</w>": 7283,
      "Ġrescue</w>": 7284,
      "fect</w>": 7285,
      "Ġtooth</w>": 7286,
      "Ġasham</w>": 7287,
      "ĠMorn</w>": 7288,
      "Ġheavily</w>": 7289,
      "ssue</w>": 7290,
      "nes</w>": 7291,
      "Ġcrop</w>": 7292,
      "Ġboo</w>": 7293,
      "Ġdesign": 7294,
      "ĠAw</w>": 7295,
      "ecutive</w>": 7296,
      "TV</w>": 7297,
      "ins": 7298,
      "gal</w>": 7299,
      "ĠCertain</w>": 7300,
      "Ġceremony</w>": 7301,
      "Ġstim": 7302,
      "uli": 7303,
      "scription</w>": 7304,
      "Ġsplendid</w>": 7305,
      "dson</w>": 7306,
      "Ġlung</w>": 7307,
      "ardo</w>": 7308,
      "Ġinner</w>": 7309,
      "Ġmaxim": 7310,
      "Ġalph": 7311,
      "Ġseparated</w>": 7312,
      "Ġbeam</w>": 7313,
      "Ġsatisfied</w>": 7314,
      "cel": 7315,
      "ĠWed": 7316,
      "Ġtheat</w>": 7317,
      "ĠWri": 7318,
      "Ġwreck</w>": 7319,
      "Ġyo</w>": 7320,
      "Ġextent</w>": 7321,
      "Ġsorrow</w>": 7322,
      "ĠMarsh": 7323,
      "Ġbold</w>": 7324,
      "Ġrot": 7325,
      "vi</w>": 7326,
      "ĠFra": 7327,
      "gent</w>": 7328,
      "ĠRachel</w>": 7329,
      "ropolitan</w>": 7330,
      "aro": 7331,
      "Ġacademic</w>": 7332,
      "ĠAlbert</w>": 7333,
      "ĠCel": 7334,
      "ĠDespite</w>": 7335,
      "ĠCir": 7336,
      "lip</w>": 7337,
      "ĠShort</w>": 7338,
      "Ġsymptom</w>": 7339,
      "ĠMoscow</w>": 7340,
      "ĠSon": 7341,
      "ando</w>": 7342,
      "Ġmelt</w>": 7343,
      "ĠSav": 7344,
      "ident</w>": 7345,
      "Ġfever</w>": 7346,
      "ĠBus": 7347,
      "Ġidentified</w>": 7348,
      "ĠSand": 7349,
      "Ġargue</w>": 7350,
      "elia</w>": 7351,
      "inic</w>": 7352,
      "Ġscul": 7353,
      "Ġshin</w>": 7354,
      "tho</w>": 7355,
      "ĠHelen</w>": 7356,
      "ody</w>": 7357,
      "ĠPete</w>": 7358,
      "Ġobli": 7359,
      "ĠFore": 7360,
      "Ġcontribution</w>": 7361,
      "Ġretain</w>": 7362,
      "Ġcontext</w>": 7363,
      "ivist</w>": 7364,
      "Ġcapture</w>": 7365,
      "ĠWa": 7366,
      "Ġflame</w>": 7367,
      "ĠBelg": 7368,
      "ourne</w>": 7369,
      "Ġgender</w>": 7370,
      "umin": 7371,
      "ĠSergeant</w>": 7372,
      "ĠApple</w>": 7373,
      "ĠKennedy</w>": 7374,
      "Ġvice</w>": 7375,
      "Ġbump</w>": 7376,
      "ĠDog</w>": 7377,
      "Ġindicate</w>": 7378,
      "ĠAlb": 7379,
      "Ġputation</w>": 7380,
      "Ġdebate</w>": 7381,
      "EL</w>": 7382,
      "con</w>": 7383,
      "ĠEnd</w>": 7384,
      "ĠVice</w>": 7385,
      "Ġthrone</w>": 7386,
      "ĠZ</w>": 7387,
      "ĠCab": 7388,
      "Ġdig</w>": 7389,
      "Ġsane</w>": 7390,
      "Ġmama</w>": 7391,
      "ĠKal": 7392,
      "Ġpasse</w>": 7393,
      "ĠIllustration</w>": 7394,
      "ĠLIKE</w>": 7395,
      "Ġpardon</w>": 7396,
      "Ġvolunt</w>": 7397,
      "Ġoperated</w>": 7398,
      "eran</w>": 7399,
      "ĠYu": 7400,
      "Ġrage</w>": 7401,
      "Ġscare</w>": 7402,
      "very</w>": 7403,
      "zh": 7404,
      "Ġooh</w>": 7405,
      "Ġoxygen</w>": 7406,
      "ĠBishop</w>": 7407,
      "ĠAlway</w>": 7408,
      "ouri</w>": 7409,
      "ĠFrank": 7410,
      "ĠÃ£</w>": 7411,
      "edral</w>": 7412,
      "ĠCharlo": 7413,
      "Ġathlete</w>": 7414,
      "ĠMoon</w>": 7415,
      "ĠHalf</w>": 7416,
      "ilton</w>": 7417,
      "Ġbrick</w>": 7418,
      "Ġbleed</w>": 7419,
      "Ġhes": 7420,
      "urche</w>": 7421,
      "Ġdistant</w>": 7422,
      "ĠPicture</w>": 7423,
      "Ġneut": 7424,
      "Ġqua": 7425,
      "edition</w>": 7426,
      "erent</w>": 7427,
      "Ġessential</w>": 7428,
      "ĠAT</w>": 7429,
      "ĠMoo": 7430,
      "rete</w>": 7431,
      "Ġlab</w>": 7432,
      "Ġfox</w>": 7433,
      "Ġarron</w>": 7434,
      "Ġinherit</w>": 7435,
      "ĠLA": 7436,
      "Ġpiss</w>": 7437,
      "BI</w>": 7438,
      "Ġdamag</w>": 7439,
      "Ġstamp</w>": 7440,
      "ĠTurkey</w>": 7441,
      "ĠLucy</w>": 7442,
      "ĠBut": 7443,
      "ĠFish</w>": 7444,
      "spiration</w>": 7445,
      "Ġwolf</w>": 7446,
      "ĠJeff": 7447,
      "Ġdetermine</w>": 7448,
      "ĠGrant</w>": 7449,
      "alized</w>": 7450,
      "Ġbean</w>": 7451,
      "ĠAli": 7452,
      "unner</w>": 7453,
      "Ġvalent</w>": 7454,
      "old": 7455,
      "Ġquest</w>": 7456,
      "Ġdomestic</w>": 7457,
      "Ġscratch</w>": 7458,
      "Ġpow": 7459,
      "ĠCount": 7460,
      "ĠKelly</w>": 7461,
      "Ġepisode</w>": 7462,
      "aneous</w>": 7463,
      "Ġrat": 7464,
      "ĠKhan</w>": 7465,
      "ĠTuesday</w>": 7466,
      "endar</w>": 7467,
      "Ġon": 7468,
      "ĠHann": 7469,
      "ĠHot": 7470,
      "Ġdipl": 7471,
      "ĠTHE": 7472,
      "ĠMicro</w>": 7473,
      "desh</w>": 7474,
      "Ġnak</w>": 7475,
      "ĠStory</w>": 7476,
      "Ġprecise</w>": 7477,
      "Ġestimated</w>": 7478,
      "resse</w>": 7479,
      "Ġpurple</w>": 7480,
      "Ġcrisis</w>": 7481,
      "Ġsan</w>": 7482,
      "ĠUse</w>": 7483,
      "Ġliquid</w>": 7484,
      "Ġtap</w>": 7485,
      "ĠMind</w>": 7486,
      "Ġspoil</w>": 7487,
      "Ġdated</w>": 7488,
      "ĠGreece</w>": 7489,
      "ĠPatrick</w>": 7490,
      "eil</w>": 7491,
      "ĠBruce</w>": 7492,
      "ĠPop</w>": 7493,
      "ĠCentre</w>": 7494,
      "ĠCut</w>": 7495,
      "ĠChannel</w>": 7496,
      "DY</w>": 7497,
      "sque</w>": 7498,
      "Ġtent</w>": 7499,
      "Ġintellect</w>": 7500,
      "ingo</w>": 7501,
      "ho</w>": 7502,
      "ĠLead</w>": 7503,
      "ĠFC</w>": 7504,
      "Ġalcohol</w>": 7505,
      "ĠLL</w>": 7506,
      "ĠLaught</w>": 7507,
      "Ġmyster</w>": 7508,
      "ĠBy": 7509,
      "Ġjury</w>": 7510,
      "Ġpast": 7511,
      "vo</w>": 7512,
      "edle</w>": 7513,
      "lop</w>": 7514,
      "Ġprecious</w>": 7515,
      "Ġincredible</w>": 7516,
      "ĠAustrian</w>": 7517,
      "ĠAs": 7518,
      "OOD</w>": 7519,
      "dium</w>": 7520,
      "ĠMorgan</w>": 7521,
      "Ġjudgment</w>": 7522,
      "Ġcip": 7523,
      "ĠBarry</w>": 7524,
      "Ġconquer</w>": 7525,
      "ĠKentuck</w>": 7526,
      "eriff</w>": 7527,
      "Ġgarage</w>": 7528,
      "Ġcampus</w>": 7529,
      "Ġmou": 7530,
      "Ġformat</w>": 7531,
      "Ġpig": 7532,
      "omi</w>": 7533,
      "ĠEX": 7534,
      "ondary</w>": 7535,
      "ĠCongratulation</w>": 7536,
      "derick</w>": 7537,
      "Ġhast</w>": 7538,
      "ĠStat": 7539,
      "Ġtransferr</w>": 7540,
      "Ġthirteen</w>": 7541,
      "rome</w>": 7542,
      "ĠWild</w>": 7543,
      "Ġarrow</w>": 7544,
      "Ġmysterious</w>": 7545,
      "Ġsought</w>": 7546,
      "enance</w>": 7547,
      "Ġmodif": 7548,
      "Ġbreathe</w>": 7549,
      "allet</w>": 7550,
      "Ġstatue</w>": 7551,
      "lem": 7552,
      "Ġrice</w>": 7553,
      "ongst</w>": 7554,
      "Ġfil</w>": 7555,
      "lin": 7556,
      "Ġmare</w>": 7557,
      "ĠOrigin</w>": 7558,
      "ĠRIGHT</w>": 7559,
      "owa</w>": 7560,
      "Ġnav": 7561,
      "Ġbeing</w>": 7562,
      "Ġtoast</w>": 7563,
      "Ġsew</w>": 7564,
      "ĠEight</w>": 7565,
      "ĠJordan</w>": 7566,
      "ĠArn": 7567,
      "Ġrele": 7568,
      "Ġequi</w>": 7569,
      "ĠCour": 7570,
      "Ġinche</w>": 7571,
      "Ġjacket</w>": 7572,
      "Ġrem": 7573,
      "Ġho</w>": 7574,
      "sible</w>": 7575,
      "Ġadministrative</w>": 7576,
      "nze</w>": 7577,
      "ĠConfer</w>": 7578,
      "atoe</w>": 7579,
      "ĠMAR": 7580,
      "ĠGO</w>": 7581,
      "Ġrifle</w>": 7582,
      "Ġstepped</w>": 7583,
      "ĠHO": 7584,
      "ĠEV": 7585,
      "Ġfond</w>": 7586,
      "Ġholy</w>": 7587,
      "Ġprogramm</w>": 7588,
      "ĠLabour</w>": 7589,
      "umph</w>": 7590,
      "Ġestimate</w>": 7591,
      "Ġjack</w>": 7592,
      "emet": 7593,
      "Ġswallow</w>": 7594,
      "Ġthorough</w>": 7595,
      "ĠDoug": 7596,
      "Ġast</w>": 7597,
      "Ġcert": 7598,
      "ĠEat</w>": 7599,
      "itate</w>": 7600,
      "ĠRea": 7601,
      "ĠAngel</w>": 7602,
      "ĠGard</w>": 7603,
      "ĠThrough</w>": 7604,
      "Ġspin</w>": 7605,
      "ĠNote</w>": 7606,
      "Ġration</w>": 7607,
      "ĠLan": 7608,
      "oni</w>": 7609,
      "IS</w>": 7610,
      "kle</w>": 7611,
      "Ġloop</w>": 7612,
      "Ġpropertie</w>": 7613,
      "Ġdumb</w>": 7614,
      "Ġpit</w>": 7615,
      "ĠHoward</w>": 7616,
      "Ġcanton</w>": 7617,
      "ĠFranci</w>": 7618,
      "Ġgrunt</w>": 7619,
      "Ġhip</w>": 7620,
      "ĠOw</w>": 7621,
      "Ġbend</w>": 7622,
      "Ġmiracle</w>": 7623,
      "Ġpowder</w>": 7624,
      "Ġdea": 7625,
      "allel</w>": 7626,
      "ĠMadame</w>": 7627,
      "ĠPhilip</w>": 7628,
      "over</w>": 7629,
      "ĠSul": 7630,
      "ĠCat</w>": 7631,
      "Ġsilk</w>": 7632,
      "Ġkinda</w>": 7633,
      "ĠIF</w>": 7634,
      "ĠGru": 7635,
      "ign": 7636,
      "Ġrevenge</w>": 7637,
      "Ġten": 7638,
      "Ġnowhere</w>": 7639,
      "Ġconstitu": 7640,
      "ĠWednes</w>": 7641,
      "Ġwishe</w>": 7642,
      "Ġcreep</w>": 7643,
      "ĠDomin": 7644,
      "Ġsav</w>": 7645,
      "Ġimmig": 7646,
      "Ġpet</w>": 7647,
      "Ġneat</w>": 7648,
      "rich</w>": 7649,
      "ĠPur": 7650,
      "INE</w>": 7651,
      "ĠArch</w>": 7652,
      "Ġexcite</w>": 7653,
      "Ġwage</w>": 7654,
      "Ġdrift</w>": 7655,
      "ĠGa": 7656,
      "loon</w>": 7657,
      "Ġobservation</w>": 7658,
      "Ġfarth</w>": 7659,
      "Ġconfident</w>": 7660,
      "Ġscarce</w>": 7661,
      "Ġvillage</w>": 7662,
      "Ġmud</w>": 7663,
      "ĠSla": 7664,
      "elm</w>": 7665,
      "Ġquake</w>": 7666,
      "Ġcandle</w>": 7667,
      "Ġglance</w>": 7668,
      "Ġstrategy</w>": 7669,
      "eu": 7670,
      "ĠBird</w>": 7671,
      "ĠReddy</w>": 7672,
      "ĠONE</w>": 7673,
      "Ġgradual</w>": 7674,
      "ĠCorp</w>": 7675,
      "Ġvector</w>": 7676,
      "Ġcable</w>": 7677,
      "ĠHit": 7678,
      "FA</w>": 7679,
      "ĠIan</w>": 7680,
      "Ġobst": 7681,
      "ĠReb": 7682,
      "Ġexpense</w>": 7683,
      "Ġtune</w>": 7684,
      "ĠWOR": 7685,
      "long</w>": 7686,
      "Ġflesh</w>": 7687,
      "imal</w>": 7688,
      "Ġcircuit</w>": 7689,
      "LA": 7690,
      "ĠDan": 7691,
      "urt</w>": 7692,
      "Ġmaker</w>": 7693,
      "ĠDevelop</w>": 7694,
      "eare</w>": 7695,
      "Ġprob</w>": 7696,
      "sid": 7697,
      "Ġdisgust</w>": 7698,
      "Ġlogic</w>": 7699,
      "Ġbatt": 7700,
      "Ġmemorie</w>": 7701,
      "Ġdesignated</w>": 7702,
      "iti</w>": 7703,
      "ĠHoc": 7704,
      "Ġwhoa</w>": 7705,
      "Ġspark</w>": 7706,
      "umble</w>": 7707,
      "ĠAff": 7708,
      "ability</w>": 7709,
      "Ġshark</w>": 7710,
      "ĠCast": 7711,
      "ĠCheer</w>": 7712,
      "Ġsuburb</w>": 7713,
      "Ġgear</w>": 7714,
      "ĠWW": 7715,
      "ĠId": 7716,
      "ĠDro": 7717,
      "ĠDead</w>": 7718,
      "Ġchas</w>": 7719,
      "ĠCareer</w>": 7720,
      "field</w>": 7721,
      "Ġknight</w>": 7722,
      "Ġassault</w>": 7723,
      "Ġsand": 7724,
      "ĠCru": 7725,
      "Ġrap</w>": 7726,
      "oir</w>": 7727,
      "Ġmonitor</w>": 7728,
      "pa</w>": 7729,
      "Ġopposition</w>": 7730,
      "erm</w>": 7731,
      "thin</w>": 7732,
      "Ġannounce</w>": 7733,
      "eror</w>": 7734,
      "ĠExt": 7735,
      "Ġentry</w>": 7736,
      "ĠLot</w>": 7737,
      "ssil</w>": 7738,
      "Ġgoat</w>": 7739,
      "Ġboxe</w>": 7740,
      "ĠChe": 7741,
      "unno</w>": 7742,
      "Ġdefence</w>": 7743,
      "ĠNHL</w>": 7744,
      "ĠEnough</w>": 7745,
      "Ġgroan</w>": 7746,
      "ĠKate</w>": 7747,
      "Ġbre": 7748,
      "Ġinsect</w>": 7749,
      "Ġni": 7750,
      "Ġmerchant</w>": 7751,
      "Ġmin</w>": 7752,
      "amma</w>": 7753,
      "Ġwander</w>": 7754,
      "Ġmaximum</w>": 7755,
      "ae": 7756,
      "din</w>": 7757,
      "Ġboom</w>": 7758,
      "ĠPrem": 7759,
      "ĠSecurity</w>": 7760,
      "ĠOliver</w>": 7761,
      "ĠMatt</w>": 7762,
      "ĠIV</w>": 7763,
      "Ġsponsor</w>": 7764,
      "hh</w>": 7765,
      "Ġexam</w>": 7766,
      "usi": 7767,
      "ĠWy": 7768,
      "ĠYo</w>": 7769,
      "ĠDes": 7770,
      "rl</w>": 7771,
      "Ġpy": 7772,
      "sie</w>": 7773,
      "Ġache</w>": 7774,
      "Ġsack</w>": 7775,
      "ĠTR": 7776,
      "uri</w>": 7777,
      "Ġsensitive</w>": 7778,
      "Ġpump</w>": 7779,
      "ĠCamp": 7780,
      "Ġabsorb</w>": 7781,
      "ĠMust</w>": 7782,
      "ĠIce</w>": 7783,
      "Ġhoriz": 7784,
      "ĠLouis": 7785,
      "ĠHeart</w>": 7786,
      "ĠNel": 7787,
      "emi</w>": 7788,
      "etie</w>": 7789,
      "Ġdragg</w>": 7790,
      "ĠAbb": 7791,
      "Ġdedicated</w>": 7792,
      "Ġdish</w>": 7793,
      "Ġmote</w>": 7794,
      "Ġadjust</w>": 7795,
      "ĠSilver</w>": 7796,
      "Ġfake</w>": 7797,
      "Ġrural</w>": 7798,
      "ify</w>": 7799,
      "Ġschedule</w>": 7800,
      "ĠDer": 7801,
      "Ġstrugg": 7802,
      "ĠLadie</w>": 7803,
      "ĠBase</w>": 7804,
      "Ġgrain</w>": 7805,
      "ĠHonor</w>": 7806,
      "ystal</w>": 7807,
      "Ġparallel</w>": 7808,
      "Ġberry</w>": 7809,
      "Ġow</w>": 7810,
      "Ġpile</w>": 7811,
      "ĠMissouri</w>": 7812,
      "FL</w>": 7813,
      "IL": 7814,
      "aze</w>": 7815,
      "ĠWELL</w>": 7816,
      "ĠHou": 7817,
      "amb</w>": 7818,
      "ĠKam": 7819,
      "Ġverse</w>": 7820,
      "Ġfantastic</w>": 7821,
      "Ġcin": 7822,
      "Ġconce": 7823,
      "ĠSydney</w>": 7824,
      "Ġaccurate</w>": 7825,
      "ĠAdm": 7826,
      "zi</w>": 7827,
      "ĠBou": 7828,
      "Ġhed": 7829,
      "Ġalter</w>": 7830,
      "aph": 7831,
      "Ġtissue</w>": 7832,
      "Ġmolecule</w>": 7833,
      "Ġbon": 7834,
      "ĠDh": 7835,
      "Ġind": 7836,
      "dinal</w>": 7837,
      "bi</w>": 7838,
      "Ġing": 7839,
      "Ġembr": 7840,
      "Ġjewel</w>": 7841,
      "ET": 7842,
      "chor</w>": 7843,
      "Ġtrou": 7844,
      "ĠPAR": 7845,
      "Ġcompete</w>": 7846,
      "vest</w>": 7847,
      "Ġsweep</w>": 7848,
      "ĠLuke</w>": 7849,
      "Ġkeen</w>": 7850,
      "ĠLes": 7851,
      "Ġfab": 7852,
      "ĠBi</w>": 7853,
      "ĠNon</w>": 7854,
      "Ġinvite</w>": 7855,
      "Ġactivist</w>": 7856,
      "ĠJeff</w>": 7857,
      "ellite</w>": 7858,
      "ĠÅ¡</w>": 7859,
      "ĠSing": 7860,
      "Ġillust": 7861,
      "enteen</w>": 7862,
      "ĠDavi</w>": 7863,
      "Ġbact": 7864,
      "Ġexpos</w>": 7865,
      "ĠJulia</w>": 7866,
      "Ġacquaint</w>": 7867,
      "ĠFli": 7868,
      "Ġcognition</w>": 7869,
      "ĠSHE</w>": 7870,
      "ĠDonald</w>": 7871,
      "anket</w>": 7872,
      "Ġspoon</w>": 7873,
      "Ġbarrel</w>": 7874,
      "inger</w>": 7875,
      "ĠPapa</w>": 7876,
      "ĠBeth</w>": 7877,
      "Ġlicense</w>": 7878,
      "ĠTenn": 7879,
      "vier</w>": 7880,
      "Ġdelicious</w>": 7881,
      "Ġfacilitie</w>": 7882,
      "rus</w>": 7883,
      "ĠNag": 7884,
      "Ġprominent</w>": 7885,
      "Ġamend</w>": 7886,
      "ĠCOME</w>": 7887,
      "ĠLisa</w>": 7888,
      "ĠÃ¢</w>": 7889,
      "ptic</w>": 7890,
      "Ġmorrow</w>": 7891,
      "ĠPick</w>": 7892,
      "Ġenc": 7893,
      "ĠHaven</w>": 7894,
      "ĠField</w>": 7895,
      "Ġpill</w>": 7896,
      "erd</w>": 7897,
      "ĠPardon</w>": 7898,
      "Ġfetch</w>": 7899,
      "lieve</w>": 7900,
      "Ġglow</w>": 7901,
      "ĠEle": 7902,
      "Ġsoap</w>": 7903,
      "Ġnorthwest</w>": 7904,
      "mar</w>": 7905,
      "encer</w>": 7906,
      "Ġfee</w>": 7907,
      "Ġtherap": 7908,
      "Ġsul": 7909,
      "Ġrequire</w>": 7910,
      "THER</w>": 7911,
      "III</w>": 7912,
      "verthe</w>": 7913,
      "Ġsav": 7914,
      "Ġinsult</w>": 7915,
      "Ġgent</w>": 7916,
      "Ġdar</w>": 7917,
      "phet</w>": 7918,
      "rary</w>": 7919,
      "Ġempha": 7920,
      "Ġfundament</w>": 7921,
      "Ġamongst</w>": 7922,
      "haust</w>": 7923,
      "Ġdinosaur</w>": 7924,
      "ĠMeg</w>": 7925,
      "ORE</w>": 7926,
      "ĠSl": 7927,
      "Ġhammer</w>": 7928,
      "Ġlyric</w>": 7929,
      "rix</w>": 7930,
      "ĠEddie</w>": 7931,
      "assador</w>": 7932,
      "ED</w>": 7933,
      "ĠTan": 7934,
      "ĠTed</w>": 7935,
      "ĠYou": 7936,
      "ĠFur": 7937,
      "ĠJudge</w>": 7938,
      "Ġslipp</w>": 7939,
      "Ġcattle</w>": 7940,
      "you</w>": 7941,
      "ĠBai": 7942,
      "dex</w>": 7943,
      "Ġeducated</w>": 7944,
      "aday</w>": 7945,
      "pil</w>": 7946,
      "aro</w>": 7947,
      "Ġrode</w>": 7948,
      "Ġbeard</w>": 7949,
      "Ġcrawl</w>": 7950,
      "eg</w>": 7951,
      "Ġbent</w>": 7952,
      "Ġcelebrate</w>": 7953,
      "bilitie</w>": 7954,
      "Ġolo": 7955,
      "ĠCape</w>": 7956,
      "ĠOop</w>": 7957,
      "Ġloved</w>": 7958,
      "Ġinfant</w>": 7959,
      "Ġinfluenc</w>": 7960,
      "Ġcontrast</w>": 7961,
      "aster</w>": 7962,
      "Ġspeare</w>": 7963,
      "Ġbusiness</w>": 7964,
      "Ġrul": 7965,
      "Ġsurvived</w>": 7966,
      "WN</w>": 7967,
      "enom": 7968,
      "Ġhurricane</w>": 7969,
      "ĠCommon</w>": 7970,
      "Ġapproved</w>": 7971,
      "ĠFA": 7972,
      "Ġmargin</w>": 7973,
      "ĠRal": 7974,
      "ĠJay</w>": 7975,
      "Ġel</w>": 7976,
      "Ġcontribut</w>": 7977,
      "Ġdivorce</w>": 7978,
      "ĠBah": 7979,
      "Ġperce": 7980,
      "emetery</w>": 7981,
      "ATE</w>": 7982,
      "BA</w>": 7983,
      "iver</w>": 7984,
      "Ġinstinct</w>": 7985,
      "DE</w>": 7986,
      "ĠDream</w>": 7987,
      "Ġanth": 7988,
      "Ġgalax": 7989,
      "ĠRoll</w>": 7990,
      "Ġbee</w>": 7991,
      "ĠSnow</w>": 7992,
      "ics</w>": 7993,
      "Ġspy</w>": 7994,
      "Ġcomposition</w>": 7995,
      "most</w>": 7996,
      "tine</w>": 7997,
      "ost": 7998,
      "Ġperp": 7999,
      "ician</w>": 8000,
      "Ġanimated</w>": 8001,
      "ĠLouisiana</w>": 8002,
      "Ġdign": 8003,
      "leep</w>": 8004,
      "Ġspider</w>": 8005,
      "Ġarrival</w>": 8006,
      "ĠHim</w>": 8007,
      "ĠRing</w>": 8008,
      "Ġloving</w>": 8009,
      "ĠAfgh": 8010,
      "bly</w>": 8011,
      "abad</w>": 8012,
      "ĠHav</w>": 8013,
      "Ġtenni</w>": 8014,
      "ST": 8015,
      "isse</w>": 8016,
      "Ġopponent</w>": 8017,
      "ĠKnight</w>": 8018,
      "ĠPun": 8019,
      "ffe</w>": 8020,
      "Ġimagination</w>": 8021,
      "onish</w>": 8022,
      "ĠGram": 8023,
      "Ġregulation</w>": 8024,
      "Ġcell": 8025,
      "Ġvasion</w>": 8026,
      "Ġcorrupt</w>": 8027,
      "gie</w>": 8028,
      "Ġagency</w>": 8029,
      "jan</w>": 8030,
      "ĠPress</w>": 8031,
      "Ġquote</w>": 8032,
      "Ġtox": 8033,
      "Ġabuse</w>": 8034,
      "Ġenorm</w>": 8035,
      "ĠExcept</w>": 8036,
      "elope</w>": 8037,
      "Ġgenius</w>": 8038,
      "ĠStudent</w>": 8039,
      "orado</w>": 8040,
      "ĠAgent</w>": 8041,
      "ĠEve</w>": 8042,
      "cha</w>": 8043,
      "Ġmeeting</w>": 8044,
      "Ġsuperior</w>": 8045,
      "ĠHockey</w>": 8046,
      "osity</w>": 8047,
      "ĠJunior</w>": 8048,
      "IR</w>": 8049,
      "ĠAy": 8050,
      "erto</w>": 8051,
      "ĠMain</w>": 8052,
      "ĠChild</w>": 8053,
      "Ġcurtain</w>": 8054,
      "jo</w>": 8055,
      "Ġwow</w>": 8056,
      "ĠWall</w>": 8057,
      "Ġcost": 8058,
      "Ġfuckin</w>": 8059,
      "Ġtriumph</w>": 8060,
      "ĠClose</w>": 8061,
      "Ġvacation</w>": 8062,
      "Ġgap</w>": 8063,
      "att</w>": 8064,
      "ĠWindow</w>": 8065,
      "yce</w>": 8066,
      "ĠTh</w>": 8067,
      "ĠSah": 8068,
      "ĠThird</w>": 8069,
      "Ġprimarily</w>": 8070,
      "erit": 8071,
      "ĠPull</w>": 8072,
      "Ġslope</w>": 8073,
      "ĠTal": 8074,
      "ĠPop": 8075,
      "Ġassess</w>": 8076,
      "ĠPaul": 8077,
      "Ġfacing</w>": 8078,
      "Ġwidow</w>": 8079,
      "INK</w>": 8080,
      "onto</w>": 8081,
      "ĠBan": 8082,
      "Ġexhaust</w>": 8083,
      "Ġtempt</w>": 8084,
      "ĠManchester</w>": 8085,
      "ĠSerb</w>": 8086,
      "ĠStra": 8087,
      "uster</w>": 8088,
      "ĠChristopher</w>": 8089,
      "itated</w>": 8090,
      "Ġinci": 8091,
      "ĠAlmost</w>": 8092,
      "ĠDiana</w>": 8093,
      "itche</w>": 8094,
      "ĠDenni</w>": 8095,
      "ĠAmong</w>": 8096,
      "Ġchim": 8097,
      "irr</w>": 8098,
      "ĠAmb": 8099,
      "ĠAnton": 8100,
      "ĠStanley</w>": 8101,
      "ĠCharlotte</w>": 8102,
      "ĠIndiana</w>": 8103,
      "ĠTemple</w>": 8104,
      "acious</w>": 8105,
      "Ġdivide</w>": 8106,
      "ĠPho": 8107,
      "aga</w>": 8108,
      "ĠSeveral</w>": 8109,
      "ĠJulie</w>": 8110,
      "UNT</w>": 8111,
      "mur</w>": 8112,
      "ĠPH": 8113,
      "erman</w>": 8114,
      "Ġclinic</w>": 8115,
      "Ġblanket</w>": 8116,
      "ĠTheatre</w>": 8117,
      "Ġjerk</w>": 8118,
      "ĠDougla</w>": 8119,
      "ĠPart</w>": 8120,
      "ĠLim": 8121,
      "ĠRabbit</w>": 8122,
      "Ġbore</w>": 8123,
      "Ġdecent</w>": 8124,
      "ĠBeach</w>": 8125,
      "Ġsacr</w>": 8126,
      "Ġwherever</w>": 8127,
      "Ġshelt</w>": 8128,
      "ĠHistor</w>": 8129,
      "ĠNorth": 8130,
      "ĠLawrence</w>": 8131,
      "Ġtain</w>": 8132,
      "ĠRain</w>": 8133,
      "ivili": 8134,
      "Ġhypo</w>": 8135,
      "Ġshield</w>": 8136,
      "fa</w>": 8137,
      "ĠNik": 8138,
      "Ġintense</w>": 8139,
      "xture</w>": 8140,
      "Ġdutie</w>": 8141,
      "Ġskirt</w>": 8142,
      "ova</w>": 8143,
      "ppet</w>": 8144,
      "Ġmig": 8145,
      "usc": 8146,
      "ĠWend</w>": 8147,
      "ĠBurn</w>": 8148,
      "ĠOtt": 8149,
      "Ġlit</w>": 8150,
      "ultie</w>": 8151,
      "Ġlace</w>": 8152,
      "ĠNich": 8153,
      "Ġfrank</w>": 8154,
      "ube</w>": 8155,
      "Ġwil": 8156,
      "inated</w>": 8157,
      "Ġexplor</w>": 8158,
      "Ġceiv</w>": 8159,
      "ĠMinnes": 8160,
      "viation</w>": 8161,
      "Ġpunch</w>": 8162,
      "ĠDean</w>": 8163,
      "ĠEN": 8164,
      "Ġexit</w>": 8165,
      "ĠIsab": 8166,
      "Ġtitled</w>": 8167,
      "ĠCook</w>": 8168,
      "uration</w>": 8169,
      "eto</w>": 8170,
      "Ġclosing</w>": 8171,
      "VD</w>": 8172,
      "ĠTow</w>": 8173,
      "ĠÃī</w>": 8174,
      "ogether</w>": 8175,
      "Ġdemon</w>": 8176,
      "Ġge": 8177,
      "ĠOnt": 8178,
      "elor</w>": 8179,
      "Ġx": 8180,
      "Ġdot</w>": 8181,
      "ĠGuess</w>": 8182,
      "ĠEmma</w>": 8183,
      "Ġfrequency</w>": 8184,
      "Ġvon</w>": 8185,
      "Ġsole</w>": 8186,
      "ĠAvenue</w>": 8187,
      "Ġcarpet</w>": 8188,
      "ĠWhoop</w>": 8189,
      "ĠFace</w>": 8190,
      "reach</w>": 8191,
      "ĠColin</w>": 8192,
      "ĠDol": 8193,
      "ĠConc": 8194,
      "Ġblew</w>": 8195,
      "ĠChi": 8196,
      "Ġeval": 8197,
      "ĠFeel</w>": 8198,
      "ĠWolf</w>": 8199,
      "Ġstadium</w>": 8200,
      "ĠNa": 8201,
      "Ġpaint": 8202,
      "Ġblast</w>": 8203,
      "ĠDemocrat</w>": 8204,
      "Ġapologize</w>": 8205,
      "ĠSO": 8206,
      "Ġweed</w>": 8207,
      "ĠAllen</w>": 8208,
      "Ġhost": 8209,
      "agg": 8210,
      "ugu": 8211,
      "Ġwagon</w>": 8212,
      "Ġtheo": 8213,
      "alogue</w>": 8214,
      "Ġpainting</w>": 8215,
      "Ġtang": 8216,
      "rella</w>": 8217,
      "ĠWind</w>": 8218,
      "Ġgn": 8219,
      "Ġsquad</w>": 8220,
      "Ġdemand</w>": 8221,
      "Ġæ": 8222,
      "Ġraid</w>": 8223,
      "Ġfur</w>": 8224,
      "ĠSpace</w>": 8225,
      "Ġliest</w>": 8226,
      "Ġannoy</w>": 8227,
      "Ġduct</w>": 8228,
      "gby</w>": 8229,
      "ĠDark</w>": 8230,
      "Ġaltogether</w>": 8231,
      "Ġoffend</w>": 8232,
      "ĠMoney</w>": 8233,
      "Ġcarn": 8234,
      "Ġdiet</w>": 8235,
      "Ġpuzzle</w>": 8236,
      "Ġpal</w>": 8237,
      "ĠNig": 8238,
      "ĠOff</w>": 8239,
      "Ġchase</w>": 8240,
      "Ġcorporated</w>": 8241,
      "oh": 8242,
      "ĠColorado</w>": 8243,
      "Ġheel</w>": 8244,
      "ĠFal": 8245,
      "ĠNew": 8246,
      "ĠNative</w>": 8247,
      "Ġvul": 8248,
      "ĠJO": 8249,
      "ĠGrand": 8250,
      "rend</w>": 8251,
      "Ġmedium</w>": 8252,
      "Ġparticipated</w>": 8253,
      "ting</w>": 8254,
      "ĠWANT</w>": 8255,
      "Ġclue</w>": 8256,
      "mpt</w>": 8257,
      "Ġcourt": 8258,
      "ĠCool</w>": 8259,
      "Ġmamm": 8260,
      "eta</w>": 8261,
      "Ġtaxe</w>": 8262,
      "Ġorchestra</w>": 8263,
      "endous</w>": 8264,
      "hu": 8265,
      "ĠRy": 8266,
      "ĠÄ±</w>": 8267,
      "Ġlane</w>": 8268,
      "Ġpoll": 8269,
      "ĠPalace</w>": 8270,
      "ĠName</w>": 8271,
      "ĠLeo</w>": 8272,
      "acing</w>": 8273,
      "Ġgoin</w>": 8274,
      "Ġimagin</w>": 8275,
      "Ġsock</w>": 8276,
      "arin</w>": 8277,
      "alia</w>": 8278,
      "Ġpine</w>": 8279,
      "Ġtiger</w>": 8280,
      "Ġbay</w>": 8281,
      "riv": 8282,
      "Ġstren": 8283,
      "ĠUSA</w>": 8284,
      "Ġancest</w>": 8285,
      "ateur</w>": 8286,
      "Ġempire</w>": 8287,
      "ĠEmily</w>": 8288,
      "rous</w>": 8289,
      "ĠDur": 8290,
      "ffle</w>": 8291,
      "ĠTrain</w>": 8292,
      "ĠBos": 8293,
      "Ġswift</w>": 8294,
      "ĠPalm</w>": 8295,
      "ost</w>": 8296,
      "rose</w>": 8297,
      "ecca</w>": 8298,
      "Ġà¤": 8299,
      "ĠJenn": 8300,
      "ĠGran": 8301,
      "Ġglove</w>": 8302,
      "ĠDai": 8303,
      "Ġvanish</w>": 8304,
      "ĠKra": 8305,
      "Ġlabour</w>": 8306,
      "endo</w>": 8307,
      "Ġgosh</w>": 8308,
      "ĠQuite</w>": 8309,
      "Ġcivili": 8310,
      "oli</w>": 8311,
      "ĠChuckle</w>": 8312,
      "ĠNope</w>": 8313,
      "Ġbeep</w>": 8314,
      "Ġscatter</w>": 8315,
      "ĠYEAH</w>": 8316,
      "ĠHitler</w>": 8317,
      "ĠPla": 8318,
      "ĠJess</w>": 8319,
      "Ġfossil</w>": 8320,
      "Ġchal": 8321,
      "Ġopt": 8322,
      "prise</w>": 8323,
      "Ġastonish</w>": 8324,
      "ju": 8325,
      "ĠCar</w>": 8326,
      "Ġfasc": 8327,
      "abet</w>": 8328,
      "Ġpirate</w>": 8329,
      "oro</w>": 8330,
      "Ġchurche</w>": 8331,
      "ĠMinist</w>": 8332,
      "ĠMU": 8333,
      "Ġneph": 8334,
      "ĠKent</w>": 8335,
      "Ġpension</w>": 8336,
      "sieur</w>": 8337,
      "Ġassass": 8338,
      "Ġachieved</w>": 8339,
      "Ġcough</w>": 8340,
      "antine</w>": 8341,
      "ĠCreek</w>": 8342,
      "ĠSame</w>": 8343,
      "Ġlend</w>": 8344,
      "Ġtemp</w>": 8345,
      "Ġvert": 8346,
      "ĠComing</w>": 8347,
      "ĠPO": 8348,
      "Ġmedian</w>": 8349,
      "ĠHindu</w>": 8350,
      "edo</w>": 8351,
      "Ġabsence</w>": 8352,
      "Ġdancer</w>": 8353,
      "Ġstake</w>": 8354,
      "ĠBU": 8355,
      "Ġdom": 8356,
      "Ġcontinuous</w>": 8357,
      "ĠSingap": 8358,
      "Ġcart</w>": 8359,
      "ĠNOW</w>": 8360,
      "emon</w>": 8361,
      "Ġtrait</w>": 8362,
      "Ġadvertis</w>": 8363,
      "irm</w>": 8364,
      "ĠToronto</w>": 8365,
      "Ġrocket</w>": 8366,
      "iversary</w>": 8367,
      "EM": 8368,
      "ĠPortugu": 8369,
      "ĠABOUT</w>": 8370,
      "ĠMinnesota</w>": 8371,
      "Ġpupil</w>": 8372,
      "ĠNeither</w>": 8373,
      "Ġemperor</w>": 8374,
      "ĠAah</w>": 8375,
      "Ġsequ": 8376,
      "Ġexplosion</w>": 8377,
      "ĠGoogle</w>": 8378,
      "Ġthief</w>": 8379,
      "Ġnap</w>": 8380,
      "ĠNear</w>": 8381,
      "Ġmann</w>": 8382,
      "Ġped": 8383,
      "ĠCorporation</w>": 8384,
[...]
